{"!":0,"\"":1,"#":2,"$":3,"%":4,"&":5,"'":6,"(":7,")":8,"*":9,"+":10,",":11,"-":12,".":13,"/":14,"0":15,"1":16,"2":17,"3":18,"4":19,"5":20,"6":21,"7":22,"8":23,"9":24,":":25,";":26,"<":27,"=":28,">":29,"?":30,"@":31,"A":32,"B":33,"C":34,"D":35,"E":36,"F":37,"G":38,"H":39,"I":40,"J":41,"K":42,"L":43,"M":44,"N":45,"O":46,"P":47,"Q":48,"R":49,"S":50,"T":51,"U":52,"V":53,"W":54,"X":55,"Y":56,"Z":57,"[":58,"\\":59,"]":60,"^":61,"_":62,"`":63,"a":64,"b":65,"c":66,"d":67,"e":68,"f":69,"g":70,"h":71,"i":72,"j":73,"k":74,"l":75,"m":76,"n":77,"o":78,"p":79,"q":80,"r":81,"s":82,"t":83,"u":84,"v":85,"w":86,"x":87,"y":88,"z":89,"{":90,"|":91,"}":92,"~":93,"¡":94,"¢":95,"£":96,"¤":97,"¥":98,"¦":99,"§":100,"¨":101,"©":102,"ª":103,"«":104,"¬":105,"®":106,"¯":107,"°":108,"±":109,"²":110,"³":111,"´":112,"µ":113,"¶":114,"·":115,"¸":116,"¹":117,"º":118,"»":119,"¼":120,"½":121,"¾":122,"¿":123,"À":124,"Á":125,"Â":126,"Ã":127,"Ä":128,"Å":129,"Æ":130,"Ç":131,"È":132,"É":133,"Ê":134,"Ë":135,"Ì":136,"Í":137,"Î":138,"Ï":139,"Ð":140,"Ñ":141,"Ò":142,"Ó":143,"Ô":144,"Õ":145,"Ö":146,"×":147,"Ø":148,"Ù":149,"Ú":150,"Û":151,"Ü":152,"Ý":153,"Þ":154,"ß":155,"à":156,"á":157,"â":158,"ã":159,"ä":160,"å":161,"æ":162,"ç":163,"è":164,"é":165,"ê":166,"ë":167,"ì":168,"í":169,"î":170,"ï":171,"ð":172,"ñ":173,"ò":174,"ó":175,"ô":176,"õ":177,"ö":178,"÷":179,"ø":180,"ù":181,"ú":182,"û":183,"ü":184,"ý":185,"þ":186,"ÿ":187,"Ā":188,"ā":189,"Ă":190,"ă":191,"Ą":192,"ą":193,"Ć":194,"ć":195,"Ĉ":196,"ĉ":197,"Ċ":198,"ċ":199,"Č":200,"č":201,"Ď":202,"ď":203,"Đ":204,"đ":205,"Ē":206,"ē":207,"Ĕ":208,"ĕ":209,"Ė":210,"ė":211,"Ę":212,"ę":213,"Ě":214,"ě":215,"Ĝ":216,"ĝ":217,"Ğ":218,"ğ":219,"Ġ":220,"ġ":221,"Ģ":222,"ģ":223,"Ĥ":224,"ĥ":225,"Ħ":226,"ħ":227,"Ĩ":228,"ĩ":229,"Ī":230,"ī":231,"Ĭ":232,"ĭ":233,"Į":234,"į":235,"İ":236,"ı":237,"Ĳ":238,"ĳ":239,"Ĵ":240,"ĵ":241,"Ķ":242,"ķ":243,"ĸ":244,"Ĺ":245,"ĺ":246,"Ļ":247,"ļ":248,"Ľ":249,"ľ":250,"Ŀ":251,"ŀ":252,"Ł":253,"ł":254,"Ń":255,"Ġt":256,"he":257,"Ġa":258,"ou":259,"Ġs":260,"Ġm":261,"in":262,"Ġw":263,"re":264,"ha":265,"nd":266,"Ġthe":267,"Ġb":268,"is":269,"or":270,"Ġf":271,"er":272,"ll":273,"it":274,"on":275,"Ġd":276,"Ġc":277,"es":278,"en":279,"Ġn":280,"Ġl":281,"Ġy":282,"Ġth":283,"ar":284,"Ġh":285,"Ġo":286,"Ġto":287,"Ġyou":288,"Ġp":289,"hat":290,"ĠI":291,"Ġhe":292,"ve":293,"ot":294,"st":295,"Ġand":296,"ow":297,"ing":298,"an":299,"Ġof":300,"om":301,"Ġg":302,"at":303,"Ġbe":304,"se":305,"Ġmy":306,"Ġin":307,"ce":308,"Ġha":309,"le":310,"ay":311,"ld":312,"ir":313,"et":314,"ed":315,"ut":316,"Ġme":317,"im":318,"ith":319,"'s":320,"Ġnot":321,"ch":322,"Ġthat":323,"Ġis":324,"gh":325,"And":326,"Ġfor":327,"ke":328,"Ġu":329,"our":330,"Ġwe":331,"oo":332,"ill":333,"Ġe":334,"her":335,"Ġwith":336,"ent":337,"Ġit":338,"Ġyour":339,"ad":340,"ri":341,"Ġthou":342,"Ġst":343,"'d":344,"Ġk":345,"ome":346,"Ġhis":347,"ght":348,"EN":349,"ord":350,"id":351,"The":352,"as":353,"Ġre":354,"Ġhave":355,"IN":356,"ly":357,"ra":358,"Ġli":359,"Ġhim":360,"ur":361,"Ġthis":362,"al":363,"IO":364,"Ġso":365,"Ġas":366,"Ġde":367,"Ġon":368,"ore":369,"ro":370,"AR":371,"hi":372,"ould":373,"ood":374,"ck":375,"ain":376,"ver":377,"est":378,"Ġthy":379,"Ġsha":380,"ess":381,"ea":382,"Ġdo":383,"Ġwill":384,"am":385,"Ġno":386,"Ġbut":387,"us":388,"and":389,"US":390,"if":391,"Ġse":392,"ge":393,"Th":394,"Ġall":395,"ake":396,"Ġsu":397,"To":398,"Ġher":399,"ru":400,"ion":401,"th":402,"Ġan":403,"ter":404,"ard":405,"Ġlo":406,"han":407,"ell":408,"ear":409,"Ġsp":410,"Ġthee":411,"Ġour":412,"Ġfa":413,"Ġshall":414,"Ġby":415,"UC":416,"il":417,"Ġare":418,"ING":419,"ĠC":420,"rom":421,"Ġne":422,"ho":423,"Ġkn":424,"AN":425,"ĠR":426,"That":427,"Ġv":428,"ER":429,"OR":430,"ast":431,"ct":432,"ous":433,"Ġwhat":434,"ight":435,"Ġsh":436,"ul":437,"ET":438,"Ġ'":439,"ant":440,"ES":441,"Ġup":442,"sel":443,"qu":444,"But":445,"art":446,"Ġgood":447,"row":448,"ine":449,"ath":450,"Ġlord":451,"hich":452,"nt":453,"ust":454,"'ll":455,"one":456,"Ġpr":457,"Ġcom":458,"Ġat":459,"Ġman":460,"What":461,"ĠM":462,"Ġwhe":463,"ĠE":464,"KING":465,"Ġam":466,"end":467,"ic":468,"Ġcon":469,"ble":470,"ry":471,"ong":472,"ie":473,"ive":474,"Ġbl":475,"Ġfrom":476,"ven":477,"ĠG":478,"For":479,"Ġshe":480,"em":481,"Ġgo":482,"are":483,"Ġmore":484,"IC":485,"out":486,"Ġthem":487,"au":488,"Ġwas":489,"oth":490,"other":491,"He":492,"Ġsir":493,"ol":494,"Ġnow":495,"ĠL":496,"Ġhat":497,"ost":498,"Ġif":499,"LO":500,"ind":501,"Ġthere":502,"Ġwould":503,"Ġknow":504,"Ġcan":505,"ers":506,"IUS":507,"ep":508,"self":509,"ARD":510,"ather":511,"fe":512,"ond":513,"res":514,"ate":515,"Ġsay":516,"Ġhere":517,"Ġlove":518,"Ġsw":519,"Ġtheir":520,"Ġbr":521,"pp":522,"Ġor":523,"--":524,"all":525,"ĠS":526,"Ġthan":527,"Ġthen":528,"Ġking":529,"Ġus":530,"ĠO":531,"ĠB":532,"Ġthey":533,"Ġar":534,"od":535,"My":536,"Ġlet":537,"Ġun":538,"ig":539,"Ġwor":540,"ure":541,"ink":542,"ĠH":543,"ort":544,"hy":545,"ĠV":546,"ame":547,"fore":548,"As":549,"Ġmay":550,"el":551,"Ġqu":552,"Ġcome":553,"ook":554,"Whe":555,"ish":556,"LI":557,"Ġwell":558,"KE":559,"ves":560,"Ġj":561,"Ġone":562,"Ġhath":563,"irst":564,"You":565,"Ġmake":566,"reat":567,"ak":568,"gain":569,"Ġmust":570,"ound":571,"ng":572,"Ġgra":573,"Ġwere":574,"Ġho":575,"ci":576,"Ġsee":577,"Ġlike":578,"ue":579,"eak":580,"TIO":581,"Ġshould":582,"ity":583,"Ġpro":584,"ĠP":585,"Ġsa":586,"Ġmad":587,"um":588,"Ġpl":589,"Ġfather":590,"RO":591,"AU":592,"Ġhad":593,"Ġdid":594,"pe":595,"ime":596,"Ġupon":597,"ice":598,"ON":599,"Ġtoo":600,"ence":601,"ĠW":602,"ward":603,"ist":604,"Ġdeath":605,"own":606,"man":607,"ose":608,"Ġen":609,"un":610,"IS":611,"ful":612,"nce":613,"Ġr":614,"Ġpo":615,"Ġspeak":616,"de":617,"entle":618,"io":619,"Ġout":620,"pt":621,"Ġwhich":622,"ICH":623,"Ġfri":624,"OL":625,"DU":626,"Ġagain":627,"DUKE":628,"Ġhow":629,"EL":630,"ick":631,"ĠA":632,"Ġtru":633,"Ġheart":634,"Ġyet":635,"Ġhand":636,"CA":637,"Thou":638,"very":639,"ICHARD":640,"ENTIO":641,"With":642,"ign":643,"Ġsome":644,"ance":645,"Ġwho":646,"Which":647,"If":648,"Ġwhen":649,"ies":650,"Ġmar":651,"ire":652,"Ġmine":653,"Ġhon":654,"har":655,"orn":656,"Ġoff":657,"ince":658,"INC":659,"In":660,"ack":661,"ĠY":662,"Ġson":663,"Ġdis":664,"Ġal":665,"'t":666,"We":667,"uch":668,"wn":669,"Ġhea":670,"First":671,"oy":672,"Ġtime":673,"Ġhear":674,"AB":675,"ec":676,"Ġsuch":677,"ness":678,"LA":679,"Ġbrother":680,"Of":681,"Ġblood":682,"ither":683,"Ġab":684,"UE":685,"Why":686,"Ġthese":687,"No":688,"Ġgive":689,"Ġfo":690,"Ġday":691,"ĠII":692,"Ġear":693,"ĠRICHARD":694,"TER":695,"Ġro":696,"ise":697,"Ġex":698,"Ġlife":699,"This":700,"eet":701,"Ġtell":702,"So":703,"Ġlook":704,"Ġthink":705,"UCH":706,"oul":707,"Ġword":708,"Ġey":709,"Ġwhere":710,"ag":711,"age":712,"een":713,"ther":714,"GLO":715,"Ġtake":716,"UCES":717,"Ġfriend":718,"GLOUCES":719,"GLOUCESTER":720,"ef":721,"erv":722,"ady":723,"rown":724,"Ġdes":725,"ings":726,"ave":727,"not":728,"Ġgentle":729,"urse":730,"How":731,"RY":732,"Ġri":733,"ase":734,"QUE":735,"way":736,"INCENTIO":737,"QUEEN":738,"Ġlea":739,"tis":740,"ĠOF":741,"Ġart":742,"Ġmost":743,"Where":744,"Ġhonour":745,"LAN":746,"Ġmuch":747,"Ġsl":748,"Ġwar":749,"Ġfl":750,"urn":751,"Ġmade":752,"ment":753,"Now":754,"Ġhast":755,"Ġtw":756,"Ġfear":757,"ĠT":758,"Ġbet":759,"ENRY":760,"aught":761,"Is":762,"LE":763,"ber":764,"ff":765,"ĠGod":766,"ough":767,"ved":768,"Ġbre":769,"cc":770,"ower":771,"Ġnever":772,"ĠVINCENTIO":773,"Be":774,"ap":775,"igh":776,"ĠK":777,"Ġgreat":778,"Ġfair":779,"Who":780,"ee":781,"tle":782,"Ġmen":783,"orrow":784,"Ġcou":785,"Ġnew":786,"ĠRome":787,"aster":788,"uke":789,"iz":790,"old":791,"ORK":792,"Ġpart":793,"ation":794,"INIUS":795,"ss":796,"ree":797,"ide":798,"Or":799,"Ġcall":800,"ple":801,"Ġany":802,"Ġheaven":803,"Ġad":804,"Ġcomm":805,"It":806,"Your":807,"Ġstand":808,"Ġcannot":809,"Ġtrue":810,"DW":811,"Ġname":812,"Ġbeen":813,"ears":814,"DWARD":815,"Ġcl":816,"Ġpre":817,"Ġsweet":818,",--":819,"Ġdoth":820,"Ġpray":821,"hing":822,"PET":823,"UM":824,"Ġnoble":825,"LUC":826,"MEN":827,"TH":828,"Ġown":829,"Ġple":830,"ass":831,"ĠD":832,"ouse":833,"Ġper":834,"Ay":835,"Come":836,"ull":837,"There":838,"Ġwr":839,"Ġdone":840,"ife":841,"aw":842,"Ġtr":843,"Ġway":844,"Ġother":845,"Ġhead":846,"Ġmean":847,"li":848,"red":849,"When":850,"dward":851,"Ġnor":852,"EO":853,"MEO":854,"Ġsc":855,"Ġsoul":856,"Ġpres":857,"ROMEO":858,"ace":859,"ving":860,"Ġnight":861,"Ġbear":862,"ENIUS":863,"aint":864,"ĠCl":865,"Ġworld":866,"MENENIUS":867,"ger":868,"Ġbefore":869,"ause":870,"Ġboth":871,"Ġqueen":872,"per":873,"Then":874,"aughter":875,"RUCH":876,"ock":877,"Ġchi":878,"Here":879,"PETRUCH":880,"PETRUCHIO":881,"OM":882,"able":883,"Ġvery":884,"Ġdead":885,"TES":886,"By":887,"Ġra":888,"ite":889,"Than":890,"the":891,"Ġke":892,"ab":893,"les":894,"ĠF":895,"Ġdown":896,"to":897,"Ġapp":898,"Ġmyself":899,"Ġcont":900,"GR":901,"HA":902,"Ġwh":903,"Ġrem":904,"ĠLord":905,"Ġarm":906,"Ġthus":907,"IOLAN":908,"ilt":909,"ORIOLAN":910,"ORIOLANUS":911,"CORIOLANUS":912,"Sec":913,"Ġleave":914,"Second":915,"Ġbeing":916,"ction":917,"ĠEdward":918,"Nor":919,"sw":920,"Ġunt":921,"ress":922,"Ġgrace":923,"less":924,"Ġbeg":925,"Ġeyes":926,"BA":927,"land":928,"Ġmother":929,"ran":930,"Ġma":931,"Ġold":932,"Ġim":933,"INA":934,"ĠEDWARD":935,"itiz":936,"itizen":937,"ps":938,"Ġlong":939,"Ġever":940,"ĠMar":941,"Ġlive":942,"Ġchild":943,"Let":944,"me":945,"Ġwife":946,"She":947,"Ġaway":948,"Ġrep":949,"ĠIII":950,"Ġwom":951,"Ġpoor":952,"Ġfriends":953,"come":954,"for":955,"wick":956,"Ġaf":957,"Ġmight":958,"nder":959,"Ġstay":960,"eace":961,"ks":962,"oud":963,"Ġdie":964,"atch":965,"led":966,"ĠJ":967,"Ġru":968,"arwick":969,"Ġcomes":970,"Ġcons":971,"Ġcrown":972,"ows":973,"Ġmany":974,"Ġpe":975,"Tis":976,"hall":977,"ison":978,"Ġle":979,"ĠYORK":980,"lo":981,"uck":982,"iss":983,"Ġhouse":984,"Ġhar":985,"Ġthought":986,"Ġrest":987,"ISAB":988,"ELLA":989,"ISABELLA":990,"ian":991,"erc":992,"Ġcour":993,"RAN":994,"Ġent":995,"Ġlie":996,"che":997,"Ġset":998,"JU":999,"well":1000,"ors":1001,"atter":1002,"LIET":1003,"ONTES":1004,"ĠWarwick":1005,"LEONTES":1006,"JULIET":1007,"Nay":1008,"int":1009,"ittle":1010,"Ġdaughter":1011,"Ġgone":1012,"Ġbetter":1013,"MI":1014,"rant":1015,"ought":1016,"Ġprince":1017,"DY":1018,"His":1019,"Ġtong":1020,"Ġwit":1021,"Ġnothing":1022,"CE":1023,"VOL":1024,"ENCE":1025,"LADY":1026,"BR":1027,"TA":1028,"cl":1029,"ied":1030,"Ġkeep":1031,"Go":1032,"Well":1033,"ces":1034,"ious":1035,"os":1036,"Ġsle":1037,"Ġres":1038,"hard":1039,"Ġnews":1040,"SIC":1041,"ft":1042,"ier":1043,"Ġtri":1044,"Ġmo":1045,"ret":1046,"ont":1047,"Ġthose":1048,"Ġgri":1049,"ool":1050,"une":1051,"SICINIUS":1052,"Not":1053,"Ġlittle":1054,"Ġlords":1055,"Ġagainst":1056,"ford":1057,"Ġbest":1058,"Ġhour":1059,"Ġhence":1060,"ardon":1061,"akes":1062,"lse":1063,"Ġacc":1064,"sed":1065,"Ġface":1066,"ult":1067,"Ġfoll":1068,"On":1069,"ew":1070,"ud":1071,"ark":1072,"Ġyoung":1073,"Ġend":1074,"ork":1075,"Ġthing":1076,"Ġstill":1077,"Ġkind":1078,"ield":1079,"ST":1080,"Ġpri":1081,"Ġpur":1082,"alk":1083,"Thy":1084,"Ġcomp":1085,"LUCIO":1086,"ale":1087,"ins":1088,"ert":1089,"Ġput":1090,"Ġpower":1091,"ĠIV":1092,"ichard":1093,"Ġtwo":1094,"Ġcha":1095,"Ġhimself":1096,"Pro":1097,"iness":1098,"Ġfirst":1099,"Ġpeace":1100,"Ġgu":1101,"Ġelse":1102,"ried":1103,"Ġdear":1104,"cious":1105,"Sir":1106,"ail":1107,"ty":1108,"ason":1109,"hile":1110,"Ġsub":1111,"Ġunto":1112,"ile":1113,"ray":1114,"Ġtill":1115,"Ġsm":1116,"uty":1117,"RI":1118,"ZAB":1119,"ect":1120,"Ġtra":1121,"Ġbid":1122,"Ġback":1123,"Ġdre":1124,"Ġhus":1125,"ETH":1126,"ĠELI":1127,"Ġtherefore":1128,"Ġearth":1129,"Ġwords":1130,"Ġcount":1131,"ZABETH":1132,"ĠELIZABETH":1133,"Have":1134,"band":1135,"ius":1136,"men":1137,"ople":1138,"yal":1139,"Ġfind":1140,"Ġcould":1141,"Ġtongue":1142,"orse":1143,"Ġlady":1144,"Ġthine":1145,"Ġneed":1146,"ĠYork":1147,"HENRY":1148,"get":1149,"tw":1150,"Ġtre":1151,"Ġfell":1152,"enry":1153,"Ġhigh":1154,"Ġforth":1155,"Ġhope":1156,"MER":1157,"St":1158,"lp":1159,"Ġhome":1160,"vere":1161,"eth":1162,"Ġseem":1163,"eech":1164,"ĠRomeo":1165,"Ġhusband":1166,"CL":1167,"Ġduke":1168,"Ġright":1169,"GE":1170,"WAR":1171,"WIC":1172,"fort":1173,"ĠWhat":1174,"rer":1175,"Ġban":1176,"uth":1177,"Ġthough":1178,"ĠVI":1179,"WARWIC":1180,"WARWICK":1181,"UT":1182,"ach":1183,"ix":1184,"Ġmind":1185,"Ġbra":1186,"ister":1187,"Ġche":1188,"Ġchar":1189,"hip":1190,"ĠHENRY":1191,"Ġpeople":1192,"Nurse":1193,"ds":1194,"ged":1195,"ĠCitizen":1196,"ren":1197,"They":1198,"ĠHenry":1199,"HAM":1200,"IAN":1201,"LET":1202,"PU":1203,"eed":1204,"Ġbri":1205,"Ġchan":1206,"Ġlaw":1207,"ĠRichard":1208,"Ġshow":1209,"Ġconf":1210,"Ġhands":1211,"PULET":1212,"EY":1213,"be":1214,"Ġmaster":1215,"Ġwhy":1216,"Ġco":1217,"Ġcause":1218,"Ġgl":1219,"Ġonce":1220,"Ġsaid":1221,"Ġimp":1222,"Good":1223,"MIO":1224,"Shall":1225,"Ġbod":1226,"Ġnone":1227,"ousin":1228,"Ġjoy":1229,"ervant":1230,"All":1231,"bt":1232,"Ġfort":1233,"Ġbring":1234,"Yet":1235,"Ġdou":1236,"ates":1237,"Ġevery":1238,"UCKING":1239,"BRUT":1240,"UCKINGHAM":1241,"BRUTUS":1242,"BRO":1243,"BUCKINGHAM":1244,"From":1245,"TRAN":1246,"iet":1247,"Ġmist":1248,"Ġpass":1249,"ird":1250,"Ġlight":1251,"INGBRO":1252,"ESS":1253,"ĠBOL":1254,"TRANIO":1255,"INGBROKE":1256,"ĠBOLINGBROKE":1257,"Do":1258,"Will":1259,"lt":1260,"vost":1261,"Ġwo":1262,"Ġnat":1263,"Ġthr":1264,"Ġroyal":1265,"swer":1266,"PER":1267,"TIS":1268,"cle":1269,"Ġtears":1270,"its":1271,"Ġcame":1272,"ary":1273,"ĠMAR":1274,"Ġwhose":1275,"Ġplease":1276,"lf":1277,"vy":1278,"ory":1279,"Ġpardon":1280,"roke":1281,"ĠAn":1282,"Cl":1283,"GAR":1284,"NE":1285,"pose":1286,"Ġbes":1287,"Ġboy":1288,"Ġfull":1289,"arry":1290,"Ġheard":1291,"Ġhapp":1292,"Ġdev":1293,"Ġjust":1294,"Ġwrong":1295,"Ġpresent":1296,"ĠMARGAR":1297,"ĠMARGARET":1298,"ATH":1299,"eel":1300,"Ġsince":1301,"Ġmis":1302,"ens":1303,"Ġland":1304,"Ġlast":1305,"Ġere":1306,"Ġstate":1307,"Ġplace":1308,"MIL":1309,"bl":1310,"sand":1311,"Ġmeet":1312,"Ġunder":1313,"Ġkill":1314,"Ġafter":1315,"HOR":1316,"cent":1317,"Ġsorrow":1318,"ition":1319,"Ġcare":1320,"Ġthousand":1321,"esty":1322,"ANGE":1323,"ORD":1324,"Ġhold":1325,"GRE":1326,"ANGELO":1327,"CU":1328,"Our":1329,"Ġhelp":1330,"ARINA":1331,"arence":1332,"Ġwhom":1333,"Ġfollow":1334,"KATH":1335,"day":1336,"Ġfar":1337,"Ġless":1338,"Ġhither":1339,"ceive":1340,"irt":1341,"Ġweep":1342,"Ġshame":1343,"selves":1344,"cius":1345,"Ġenem":1346,"Ġabout":1347,"Ġeye":1348,"KATHARINA":1349,"iol":1350,"Ġfal":1351,"Ġfool":1352,"ons":1353,"Ġpat":1354,"urde":1355,"Ġsun":1356,"Ġanswer":1357,"air":1358,"Ġch":1359,"asure":1360,"Ġfall":1361,"Ġmaid":1362,"LUS":1363,"Un":1364,"Up":1365,"ount":1366,"Ġbus":1367,"Ġcousin":1368,"thy":1369,"ESCA":1370,"Ġhate":1371,"Ġgracious":1372,"Ġgentleman":1373,"ĠKing":1374,"Ġgrief":1375,"ESCALUS":1376,"An":1377,"ject":1378,"ove":1379,"Ġmakes":1380,"Ġinto":1381,"imes":1382,"Ġstri":1383,"Hath":1384,"iv":1385,"ild":1386,"Ġstre":1387,"ĠEng":1388,"Ġwoman":1389,"DUCH":1390,"Ġturn":1391,"Ġhum":1392,"Ġbel":1393,"alt":1394,"Ġdost":1395,"Ġcomfort":1396,"ices":1397,"Ġcoun":1398,"ĠDuke":1399,"Ġcourt":1400,"Ġsleep":1401,"urderer":1402,"DUCHESS":1403,"Lord":1404,"pher":1405,"Ġtalk":1406,"itor":1407,"Ġover":1408,"Ġbody":1409,"morrow":1410,"Ġwilt":1411,"Ġbu":1412,"Ġgr":1413,"ute":1414,"gelo":1415,"deed":1416,"ĠMarcius":1417,"IA":1418,"ience":1419,"Ġi":1420,"ised":1421,"Ġbed":1422,"Ġfault":1423,"Ġatt":1424,"ieve":1425,"Ġprove":1426,"Ġplay":1427,"CAMIL":1428,"ĠClarence":1429,"CAMILLO":1430,"God":1431,"ere":1432,"ily":1433,"Ġsound":1434,"Ġdra":1435,"ans":1436,"omet":1437,"Ġinst":1438,"Ġwel":1439,"ade":1440,"Ġret":1441,"Ġdeed":1442,"Ġthank":1443,"TEN":1444,"Ġser":1445,"Ġbo":1446,"Ġfight":1447,"Ġindeed":1448,"illain":1449,"hold":1450,"Ġvo":1451,"Ġsword":1452,"ĠAngelo":1453,"HORTEN":1454,"Ġfalse":1455,"HORTENS":1456,"FRI":1457,"Sh":1458,"Ġuse":1459,"Ġeven":1460,"Ġsovere":1461,"Ġanother":1462,"Ġgrave":1463,"Ġadv":1464,"Provost":1465,"Ġfellow":1466,"Upon":1467,"HORTENSIO":1468,"FRIAR":1469,",'":1470,"PTIS":1471,"eal":1472,"Ġcur":1473,"Ġhas":1474,"Ġem":1475,"ury":1476,"pect":1477,"BAPTIS":1478,"Ġbanish":1479,"Ġfortune":1480,"BAPTISTA":1481,"CUS":1482,"COM":1483,"TOL":1484,"YCUS":1485,"pl":1486,"pen":1487,"ouch":1488,"Ġmerc":1489,"Ġmatter":1490,"Ġwant":1491,"Ġreven":1492,"Ġass":1493,"Ġsend":1494,"Ġprison":1495,"fect":1496,"AUTOL":1497,"Ġrather":1498,"Ġcountry":1499,"Ġdoubt":1500,"COMINIUS":1501,"AUTOLYCUS":1502,".'":1503,"Are":1504,"Even":1505,"More":1506,"Ġwish":1507,"Ġyears":1508,"Ġreason":1509,"Ġlies":1510,"Ġonly":1511,"ARENCE":1512,"Third":1513,"Ġvirt":1514,"Ġtruth":1515,"Would":1516,"ior":1517,"ms":1518,"of":1519,"rance":1520,"ĠBut":1521,"Ġdan":1522,"Ġpers":1523,"any":1524,"Ġbreath":1525,"Ġarms":1526,"Ġdream":1527,"CLARENCE":1528,"pherd":1529,"BEN":1530,"MAR":1531,"NOR":1532,"dd":1533,"der":1534,"Ġsent":1535,"ener":1536,"Ġgi":1537,"Ġstra":1538,"Ġshalt":1539,"Ġdisc":1540,"VOLIO":1541,"Clown":1542,"Ġbusiness":1543,"BENVOLIO":1544,"Al":1545,"At":1546,"PRO":1547,"SPER":1548,"by":1549,"hed":1550,"Ġsen":1551,"Ġprom":1552,"Ġholy":1553,"Ġenough":1554,"erving":1555,"Ġcommand":1556,"UMIO":1557,"GRUMIO":1558,"PROSPER":1559,"PROSPERO":1560,"ia":1561,"ken":1562,"Ġsea":1563,"Ġwind":1564,"itt":1565,"Ġcra":1566,"Ġlay":1567,"ars":1568,"Ġpity":1569,"ator":1570,"Ġbea":1571,"Ġhang":1572,"Ġstran":1573,"Ġsold":1574,"Ġspir":1575,"Ġfare":1576,"Ġproud":1577,"ĠMurderer":1578,"Ġswear":1579,"Ġcontent":1580,"MERCU":1581,"MERCUTIO":1582,"ike":1583,"Ġdare":1584,"eter":1585,"Ġlives":1586,"Ġdep":1587,"Ġsec":1588,"Ġvillain":1589,"gainst":1590,"ĠKate":1591,"LUCENTIO":1592,"Ġremem":1593,"Ġnature":1594,"Ġwelcome":1595,"POM":1596,"Tw":1597,"com":1598,"unt":1599,"Ġtend":1600,"ham":1601,"Ġfree":1602,"Ġgre":1603,"Ġget":1604,"Ġint":1605,"Ġwithin":1606,"Ġkiss":1607,"ester":1608,"ĠCome":1609,"Ġgods":1610,"Ġsaw":1611,"Ġmadam":1612,"LAND":1613,"Ġhappy":1614,"Ġsovereign":1615,"POMP":1616,"LINA":1617,"PAU":1618,"apt":1619,"Ġserv":1620,"Ġsister":1621,"Ġsomet":1622,"hal":1623,"Ġfoul":1624,"Ġcity":1625,"vers":1626,"Were":1627,"Ġbeseech":1628,"PAULINA":1629,"YORK":1630,"ient":1631,"use":1632,"ery":1633,"Ġden":1634,"Ġyield":1635,"Ġthree":1636,"Ġoath":1637,"Ġyours":1638,"onder":1639,"ague":1640,"Ġbreak":1641,"Ġmeans":1642,"Ġsubject":1643,"gether":1644,"GREMIO":1645,"POMPEY":1646,"NIA":1647,"OLI":1648,"POLI":1649,"XEN":1650,"balt":1651,"ybalt":1652,"ĠNor":1653,"Ġaw":1654,"Ġmer":1655,"Ġwhile":1656,"Ġborn":1657,"Ġthings":1658,"Ġhorse":1659,"anc":1660,"usic":1661,"ANT":1662,"Ġbloody":1663,"Ġlooks":1664,"eft":1665,"UMNIA":1666,"like":1667,"ches":1668,"VOLUMNIA":1669,"POLIXEN":1670,"POLIXENES":1671,"GON":1672,"Her":1673,"rong":1674,"up":1675,"ues":1676,"Ġtem":1677,"Ġwin":1678,"Ġwound":1679,"Ġfire":1680,"enger":1681,"Ġyourself":1682,"Ġsupp":1683,"Ġspo":1684,"Ġfaith":1685,"INGS":1686,"ĠServing":1687,"Ġmaj":1688,"STINGS":1689,"Ġtraitor":1690,"centio":1691,"ĠServingman":1692,"RENCE":1693,"Say":1694,"bs":1695,"broke":1696,"rem":1697,"Ġdru":1698,"Ġlam":1699,"essenger":1700,"ĠLAU":1701,"Ġmark":1702,"Ġcommon":1703,"HASTINGS":1704,"Ġchildren":1705,"ertain":1706,"Ġmistress":1707,"ĠLAURENCE":1708,"BY":1709,"BER":1710,"Ġcond":1711,"Ġbeat":1712,"Ġrequ":1713,"Ġdef":1714,"Ġval":1715,"Ġuncle":1716,"Therefore":1717,"form":1718,"Ġmajesty":1719,"CLI":1720,"FF":1721,"Look":1722,"Was":1723,"Ġaff":1724,"Ġsin":1725,"Ġmet":1726,"Ġlate":1727,"Ġleft":1728,"Ġtold":1729,"Ġsoon":1730,"Ġseen":1731,"Ġsave":1732,"Ġdays":1733,"UMBER":1734,"THUMBER":1735,"Ġwoe":1736,"ĠEngland":1737,"NORTHUMBER":1738,"Ġtender":1739,"CLIFF":1740,"NORTHUMBERLAND":1741,"ID":1742,"Take":1743,"bed":1744,"ever":1745,"ring":1746,"ten":1747,"Ġsight":1748,"Ġmon":1749,"Ġgener":1750,"ides":1751,"idow":1752,"Ġdoes":1753,"Though":1754,"Ġreturn":1755,"Ġmercy":1756,"Ġfarewell":1757,"ac":1758,"dom":1759,"mp":1760,"ĠAN":1761,"hes":1762,"Ġsit":1763,"Ġsad":1764,"rel":1765,"Ġdeep":1766,"ters":1767,"Ġgold":1768,"unes":1769,"Ġmarry":1770,"Ġheavy":1771,"Ġfoot":1772,"Ġwarrant":1773,"ĠJul":1774,"Ġpurpose":1775,"Ġthrough":1776,"Ġdanger":1777,"ĠANNE":1778,"Ah":1779,"Did":1780,"Give":1781,"PR":1782,"aim":1783,"ict":1784,"mer":1785,"so":1786,"und":1787,"vent":1788,"Ġill":1789,"Ġcho":1790,"Ġcold":1791,"Ġnurse":1792,"Ġtogether":1793,"Ġgrow":1794,"ours":1795,"ifford":1796,"Ġsure":1797,"earn":1798,"CAPULET":1799,"ignior":1800,"INCE":1801,"Ġdeser":1802,"ments":1803,"PRINCE":1804,"az":1805,"aid":1806,"ca":1807,"oint":1808,"Ġtimes":1809,"oriol":1810,"ingbroke":1811,"ceed":1812,"Ġwithout":1813,"enty":1814,"Ġask":1815,"ross":1816,"ush":1817,"Ġlost":1818,"arewell":1819,"olingbroke":1820,"Ġpluck":1821,"Ġreport":1822,"Ġliege":1823,"Ġbelieve":1824,"Ġspirit":1825,"ling":1826,"sh":1827,"xt":1828,"Ġair":1829,"Ġage":1830,"outh":1831,"Ġwat":1832,"Ġheir":1833,"ets":1834,"ains":1835,"Ġthyself":1836,"ift":1837,"Ġloss":1838,"ĠMont":1839,"Ġsays":1840,"ĠBolingbroke":1841,"Whose":1842,"One":1843,"Ġstrange":1844,"ALO":1845,"Had":1846,"ial":1847,"no":1848,"ner":1849,"Ġbat":1850,"Ġcry":1851,"Ġlearn":1852,"ced":1853,"Ġsuff":1854,"aking":1855,"Ġears":1856,"Ġhaste":1857,"ĠClifford":1858,"Ġentreat":1859,"Ġdevil":1860,"Ġground":1861,"Should":1862,"Ġperson":1863,"ĠJuliet":1864,"Like":1865,"Wh":1866,"ges":1867,"night":1868,"Ġmur":1869,"ined":1870,"Ġfly":1871,"Ġtoward":1872,"Ġpast":1873,"oman":1874,"let":1875,"Ġfast":1876,"Ġvis":1877,"aud":1878,"ĠLu":1879,"Ġpoint":1880,"Ġfriar":1881,"Ġdisp":1882,"Ġslain":1883,"Ġbetw":1884,"ĠFrance":1885,"ixt":1886,"Ġjustice":1887,"Ġstraight":1888,"Ġremember":1889,"APULET":1890,"FL":1891,"FID":1892,"IZ":1893,"May":1894,"Some":1895,"Ġord":1896,"Ġsil":1897,"ina":1898,"Ġbold":1899,"Ġcurse":1900,"Ġnear":1901,"ution":1902,"Ġstrong":1903,"These":1904,"ĠCAPULET":1905,"ORIZ":1906,"Ġworthy":1907,"Ġquick":1908,"AUFID":1909,"entleman":1910,"Ġtrust":1911,"Ġalone":1912,"Ġdesire":1913,"Ġinstru":1914,"Ġbeauty":1915,"Ġservice":1916,"FLORIZ":1917,"AUFIDIUS":1918,"FLORIZEL":1919,"Can":1920,"SE":1921,"Tell":1922,"VER":1923,"gs":1924,"ning":1925,"ship":1926,"with":1927,"Ġtouch":1928,"Ġfound":1929,"ithe":1930,"ĠIs":1931,"adam":1932,"Ġready":1933,"ION":1934,"Ġbrought":1935,"ured":1936,"Ġposs":1937,"ĠTybalt":1938,"Ġrun":1939,"Ġhard":1940,"Ġenemy":1941,"Ġrevenge":1942,"Ġgeneral":1943,"audio":1944,"!'":1945,"Ha":1946,"ible":1947,"vo":1948,"ĠHere":1949,"Ġwoo":1950,"Ġduty":1951,"enator":1952,"Ġgrant":1953,"Ġinf":1954,"cept":1955,"Ġitself":1956,"amill":1957,"Ġlose":1958,"aunt":1959,"Ġknows":1960,"Ġcanst":1961,"ĠSenator":1962,"inks":1963,"umber":1964,"Ġmarried":1965,"Ġthoughts":1966,"Ġcharge":1967,"Against":1968,"Bec":1969,"CIUS":1970,"RICHARD":1971,"Sp":1972,"cester":1973,"eep":1974,"gu":1975,"lou":1976,"sue":1977,"ua":1978,"ĠYou":1979,"Ġmorn":1980,"Ġwear":1981,"riage":1982,"Ġread":1983,"Ġdeli":1984,"Ġspeed":1985,"Ġquar":1986,"Ġprof":1987,"Ġtwenty":1988,"Ġstands":1989,"BAST":1990,"Shepherd":1991,"ched":1992,"Ġhours":1993,"Ġconfess":1994,"Ġstreng":1995,"SEBAST":1996,"ithee":1997,"SEBASTIAN":1998,"OW":1999,"cess":2000,"ĠN":2001,"Ġmock":2002,"Ġfur":2003,"Ġfore":2004,"Ġfield":2005,"ones":2006,"Ġdiv":2007,"Ġcar":2008,"Ġyouth":2009,"Ġpost":2010,"Ġhell":2011,"ingham":2012,"Ġhalf":2013,"oop":2014,"Thus":2015,"ĠRi":2016,"olk":2017,"fection":2018,"ĠHast":2019,"Ġjud":2020,"ump":2021,"Ġexec":2022,"Ġfearful":2023,"Ġcounsel":2024,"amillo":2025,"BION":2026,"Com":2027,"DEL":2028,"Till":2029,"most":2030,"pare":2031,"Ġter":2032,"Ġmin":2033,"Ġwret":2034,"Ġbos":2035,"Ġpar":2036,"Ġbehold":2037,"Ġinc":2038,"Ġeach":2039,"ads":2040,"Ġrec":2041,"Ġdel":2042,"ĠCoriol":2043,"ols":2044,"Ġwork":2045,"ortal":2046,"Ġhearts":2047,"Ġmarriage":2048,"Ġdesp":2049,"ĠClaudio":2050,"itizens":2051,"uckingham":2052,"Ġresol":2053,"MARCIUS":2054,"ĠMontague":2055,"loucester":2056,"BIONDEL":2057,"Ġbosom":2058,"BIONDELLO":2059,"Away":2060,"MON":2061,"Madam":2062,"bly":2063,"folk":2064,"iers":2065,"now":2066,"ĠThe":2067,"Ġtit":2068,"Ġten":2069,"Ġtale":2070,"Ġbound":2071,"Ġdam":2072,"Ġcut":2073,"ench":2074,"Ġye":2075,"Ġopen":2076,"rah":2077,"alm":2078,"ĠCap":2079,"Ġshort":2080,"Ġknown":2081,"ĠBuckingham":2082,"Ġseek":2083,"Ġharm":2084,"Ġcompany":2085,"Ġguilt":2086,"Ġhighness":2087,"Ġstrike":2088,"Ġattend":2089,"Ġserve":2090,"Ġmurder":2091,"ĠHastings":2092,"Farewell":2093,"HER":2094,"OP":2095,"chan":2096,"hood":2097,"Ġve":2098,"ĠHe":2099,"ĠAU":2100,"Ġag":2101,"Ġsat":2102,"Ġside":2103,"Ġwhi":2104,"Ġwatch":2105,"rest":2106,"ished":2107,"Ġfeel":2108,"Ġdish":2109,"Ġdist":2110,"ents":2111,"ander":2112,"Ġsuit":2113,"Ġloving":2114,"ONIO":2115,"Ġhonest":2116,"Ġheavens":2117,"Ġtrib":2118,"MERLE":2119,"Ġdraw":2120,"Ġvoices":2121,"Ġsomething":2122,"ANTONIO":2123,"Ġstrength":2124,"ĠAUMERLE":2125,"Marry":2126,"Pray":2127,"See":2128,"ZALO":2129,"fid":2130,"ging":2131,"Ġact":2132,"Ġsake":2133,"Ġwast":2134,"Ġwonder":2135,"Ġwidow":2136,"Ġbit":2137,"Ġcor":2138,"Ġsto":2139,"Ġstir":2140,"ĠGentleman":2141,"ĠGloucester":2142,"ĠLanc":2143,"Ġdidst":2144,"Ġgentlemen":2145,"Ġcloud":2146,"Ġwomen":2147,"ethinks":2148,"Ġenemies":2149,"GONZALO":2150,"ĠLancaster":2151,"Unt":2152,"ives":2153,"su":2154,"Ġsing":2155,"Ġmusic":2156,"rew":2157,"Ġbreat":2158,"Ġdr":2159,"Ġpra":2160,"Ġpie":2161,"Ġpale":2162,"Ġgates":2163,"oose":2164,"race":2165,"ils":2166,"ĠCamillo":2167,"Ġnext":2168,"Ġknew":2169,"Ġcoming":2170,"Ġthanks":2171,"Ġclose":2172,"Ġpleasure":2173,"Ġsouls":2174,"ianca":2175,"Ġcourse":2176,"Ġenter":2177,"Ġwithal":2178,"Ġbrave":2179,"Ġchee":2180,"ceived":2181,"Ġtitle":2182,"DIO":2183,"fter":2184,"ne":2185,"vour":2186,"you":2187,"Ġty":2188,"Ġwa":2189,"Ġbur":2190,"Ġfit":2191,"oward":2192,"Ġgar":2193,"Ġbecome":2194,"etch":2195,"etru":2196,"Ġforg":2197,"Ġweak":2198,"Ġeither":2199,"Ġlips":2200,"rust":2201,"els":2202,"Ġjest":2203,"Ġplain":2204,"AUDIO":2205,"Ġabs":2206,"Ġpret":2207,"claim":2208,"Ġgrie":2209,"CLAUDIO":2210,"Ġchange":2211,"MIONE":2212,"ĠNorfolk":2213,"CLIFFORD":2214,"Ġsuffer":2215,"Ġdeliver":2216,"HERMIONE":2217,"DA":2218,"EDWARD":2219,"LORD":2220,"Most":2221,"cher":2222,"kes":2223,"ses":2224,"ufid":2225,"ĠTh":2226,"Ġsk":2227,"Ġsame":2228,"Ġsick":2229,"Ġsign":2230,"Ġwis":2231,"Ġwall":2232,"ready":2233,"isf":2234,"Ġcast":2235,"irth":2236,"chio":2237,"Ġforb":2238,"Ġforget":2239,"oof":2240,"ries":2241,"Ġreg":2242,"urp":2243,"east":2244,"Ġven":2245,"Ġthemselves":2246,"ĠBianca":2247,"Ġworse":2248,"ĠPom":2249,"Ġtook":2250,"Ġpoison":2251,"Ġalong":2252,"Ġrich":2253,"Ġbreast":2254,"ranio":2255,"Ġconsul":2256,"RANDA":2257,"MIRANDA":2258,"twas":2259,"twere":2260,"Ġcheer":2261,"Ġpatience":2262,"Ġmerry":2263,"Ġorder":2264,"etruchio":2265,"ufidius":2266,"HN":2267,"Messenger":2268,"OHN":2269,"SA":2270,"SON":2271,"Servant":2272,"lst":2273,"oin":2274,"ting":2275,"Ġmouth":2276,"Ġwed":2277,"Ġbad":2278,"Ġbook":2279,"Ġfour":2280,"Ġdu":2281,"ĠIf":2282,"Ġgave":2283,"chm":2284,"Ġissue":2285,"ash":2286,"Ġliber":2287,"vern":2288,"Ġself":2289,"ions":2290,"rows":2291,"ally":2292,"Ġoffice":2293,"Ġalready":2294,"Being":2295,"Ġmove":2296,"Ġvirtue":2297,"Ġgiven":2298,"Ġbattle":2299,"ĠHereford":2300,"Ġmorning":2301,"Ġfurther":2302,"Make":2303,"Since":2304,"mber":2305,"nk":2306,"pes":2307,"rist":2308,"she":2309,"uous":2310,"used":2311,"Ġta":2312,"Ġac":2313,"oun":2314,"Ġwise":2315,"Ġburn":2316,"orge":2317,"Ġfrown":2318,"Ġfeast":2319,"Ġdire":2320,"esh":2321,"Ġlad":2322,"Ġpay":2323,"anus":2324,"Ġgro":2325,"ats":2326,"Ġred":2327,"Ġsoft":2328,"each":2329,"Ġsucc":2330,"icer":2331,"Ġblack":2332,"Ġgoes":2333,"Ġsworn":2334,"ĠSignior":2335,"elcome":2336,"Ġprop":2337,"Ġsons":2338,"Ġfoe":2339,"Ġext":2340,"ĠTower":2341,"Before":2342,"Ġtrou":2343,"Ġbegg":2344,"Ġbegin":2345,"Ġconsent":2346,"dden":2347,"Ġsoldiers":2348,"Ġrequest":2349,"ĠLucentio":2350,"Ġbetween":2351,"Ġquarrel":2352,"Ġsatisf":2353,"chmond":2354,"AS":2355,"Call":2356,"IR":2357,"Must":2358,"NT":2359,"Re":2360,"Sw":2361,"Such":2362,"gare":2363,"ires":2364,"ures":2365,"ung":2366,"uff":2367,"ĠFor":2368,"hem":2369,"Ġservant":2370,"Ġbar":2371,"Ġdro":2372,"Ġdark":2373,"Ġcr":2374,"Ġcase":2375,"Ġthri":2376,"aris":2377,"ots":2378,"stand":2379,"owers":2380,"irm":2381,"Ġloves":2382,"ĠCh":2383,"ends":2384,"Ġbless":2385,"empt":2386,"Ġthence":2387,"Ġworth":2388,"ĠAufidius":2389,"CATES":2390,"Ġexp":2391,"awd":2392,"Ġpresence":2393,"Ġpriv":2394,"Unless":2395,"Alas":2396,"Ġwounds":2397,"Ġdangerous":2398,"Because":2399,"garet":2400,"CATESBY":2401,"LY":2402,"oll":2403,"that":2404,"Ġsigh":2405,"Ġble":2406,"ona":2407,"onour":2408,"Ġhot":2409,"Ġgot":2410,"Ġinter":2411,"Ġund":2412,"Ġev":2413,"Ġsum":2414,"Ġneither":2415,"Ġvict":2416,"emn":2417,"ĠLond":2418,"ĠSir":2419,"ĠVols":2420,"cient":2421,"Ġwars":2422,"Ġflatter":2423,"Ġmighty":2424,"Ġrespect":2425,"Ġdread":2426,"Ġbride":2427,"Ġbrief":2428,"Ġthrone":2429,"Ġvoice":2430,"Ġemb":2431,"aptist":2432,"Ġdeny":2433,"Ġspoke":2434,"Ġwater":2435,"Ġvisit":2436,"ĠLondon":2437,"Both":2438,"BIAN":2439,"JOHN":2440,"Lest":2441,"Rome":2442,"REY":2443,"Yes":2444,"eorge":2445,"ip":2446,"iant":2447,"mand":2448,"ught":2449,"Ġest":2450,"Ġmal":2451,"Ġmortal":2452,"Ġbow":2453,"Ġbab":2454,"Ġfra":2455,"ern":2456,"Ġhur":2457,"Ġtown":2458,"Ġoften":2459,"Ġhaving":2460,"right":2461,"ided":2462,"Ġsudden":2463,"rum":2464,"Ġancient":2465,"Ġspeech":2466,"Ġvow":2467,"ĠGeorge":2468,"Ġloved":2469,"Ġkings":2470,"ĠBaptist":2471,"Ġworship":2472,"LIA":2473,"ĠParis":2474,"Ġsafe":2475,"ired":2476,"ainted":2477,"BAL":2478,"ĠMargaret":2479,"Ġprincely":2480,"BRA":2481,"Ġchamber":2482,"Ġseems":2483,"bey":2484,"Ġbuy":2485,"Ġdeeds":2486,"Whom":2487,"VERS":2488,"ĠRichmond":2489,"Ġbitter":2490,"BIANCA":2491,"BOW":2492,"Welcome":2493,"king":2494,"ls":2495,"lish":2496,"mb":2497,"rt":2498,"sp":2499,"ura":2500,"ĠThou":2501,"ĠThis":2502,"Ġfres":2503,"Ġfetch":2504,"Ġcol":2505,"Ġcross":2506,"Ġcoward":2507,"essed":2508,"Ġlim":2509,"Ġpen":2510,"otion":2511,"ated":2512,"urch":2513,"Ġknock":2514,"antage":2515,"oney":2516,"Ġprot":2517,"ĠGAU":2518,"ĠLady":2519,"ĠSaint":2520,"ĠServant":2521,"Ġkingdom":2522,"ĠPl":2523,"Ġsac":2524,"ELBOW":2525,"Ġheads":2526,"Ġscorn":2527,"Ġrage":2528,"Ġappear":2529,"Ġlead":2530,"Ġwitness":2531,"RIVERS":2532,"Ġpatient":2533,"Ġpromise":2534,"Ġlament":2535,"Ġvaliant":2536,"ĠIsab":2537,"Speak":2538,"Ġsuccess":2539,"ĠBaptista":2540,"ĠGAUNT":2541,"Bes":2542,"Ere":2543,"GUE":2544,"Hold":2545,"TY":2546,"cy":2547,"coun":2548,"nown":2549,"sper":2550,"will":2551,"xford":2552,"ĠKING":2553,"Ġign":2554,"Ġaction":2555,"Ġbro":2556,"Ġbawd":2557,"ities":2558,"Ġcle":2559,"Ġcreat":2560,"Ġcap":2561,"Ġlack":2562,"Ġthrow":2563,"Ġow":2564,"Ġopp":2565,"Ġgall":2566,"Ġforward":2567,"Ġeat":2568,"Ġkins":2569,"Their":2570,"iff":2571,"Ġang":2572,"Ġviol":2573,"antag":2574,"Ġprin":2575,"Ġprithee":2576,"ĠMy":2577,"Ġwash":2578,"ortens":2579,"aken":2580,"ĠPetruchio":2581,"Ġoffer":2582,"Ġleast":2583,"Ġslave":2584,"Ġflesh":2585,"ĠTranio":2586,"Ġprepare":2587,"Ġprayers":2588,"then":2589,"Ġappro":2590,"TAGUE":2591,"Ġtriump":2592,"Ġmoon":2593,"Ġcompl":2594,"itted":2595,"Ġtribunes":2596,"Ġdrink":2597,"ĠChrist":2598,"Romeo":2599,"ortensio":2600,"Yea":2601,"bit":2602,"but":2603,"ees":2604,"joy":2605,"ler":2606,"oor":2607,"ohem":2608,"vest":2609,"Ġid":2610,"Ġsur":2611,"Ġmid":2612,"ines":2613,"Ġfie":2614,"Ġdest":2615,"Ġnay":2616,"Ġthither":2617,"Ġhide":2618,"athar":2619,"Ġbeast":2620,"ley":2621,"Ġreb":2622,"raw":2623,"als":2624,"alth":2625,"cks":2626,"thumber":2627,"host":2628,"asters":2629,"feit":2630,"aked":2631,"pey":2632,"Ġalmost":2633,"ully":2634,"Ġscar":2635,"Ġsmall":2636,"Ġpresently":2637,"Ġfaults":2638,"Ġdepart":2639,"Ġsecret":2640,"Ġsubjects":2641,"Ġdefend":2642,"Ġpossess":2643,"atharina":2644,"thumberland":2645,"Con":2646,"DI":2647,"GI":2648,"IEL":2649,"Pl":2650,"VIR":2651,"Whi":2652,"aul":2653,"hind":2654,"ying":2655,"Ġtear":2656,"Ġwert":2657,"rey":2658,"Ġben":2659,"Ġbase":2660,"Ġbirth":2661,"Ġfill":2662,"Ġfond":2663,"Ġlab":2664,"arl":2665,"Ġpain":2666,"inger":2667,"Ġbec":2668,"Ġform":2669,"Ġeas":2670,"Ġstru":2671,"Ġliving":2672,"rue":2673,"though":2674,"Ġgoodly":2675,"Ġwhence":2676,"ĠGREY":2677,"Ġusurp":2678,"cience":2679,"Ġtrump":2680,"Ġhearing":2681,"Ġslaughter":2682,"Ġperform":2683,"Ġwrit":2684,"perate":2685,"ledge":2686,"Stay":2687,"Stand":2688,"Ġchance":2689,"PERDI":2690,"Ġvirtuous":2691,"Ġquickly":2692,"MONTAGUE":2693,"Ġdamn":2694,"ural":2695,"ohemia":2696,"GILIA":2697,"VIRGILIA":2698,"PERDITA":2699,"Ab":2700,"Doth":2701,"Peace":2702,"SET":2703,"SLY":2704,"ding":2705,"eem":2706,"gg":2707,"iest":2708,"over":2709,"oss":2710,"ror":2711,"your":2712,"ze":2713,"Ġut":2714,"Ġtor":2715,"Ġay":2716,"Ġmatch":2717,"Ġmild":2718,"Ġwild":2719,"read":2720,"isure":2721,"Ġfier":2722,"ony":2723,"Ġca":2724,"Ġcertain":2725,"arn":2726,"Ġpu":2727,"Ġpit":2728,"ingly":2729,"sem":2730,"Ġinj":2731,"Ġins":2732,"Ġinno":2733,"eds":2734,"edant":2735,"Ġur":2736,"Ġshad":2737,"Think":2738,"Ġknee":2739,"Ġkneel":2740,"astard":2741,"ustom":2742,"Ġblows":2743,"ĠSt":2744,"ĠOxford":2745,"Ġquiet":2746,"Ġproceed":2747,"ĠPaul":2748,"Ġhadst":2749,"Ġoffence":2750,"Ġadm":2751,"Ġpleas":2752,"force":2753,"Ġaffection":2754,"Ġslew":2755,"IANA":2756,"Ġlawful":2757,"Ġglad":2758,"bling":2759,"Ġweeping":2760,"MARIANA":2761,"Ġsoldier":2762,"Ġawhile":2763,"Ġdeserved":2764,"Ġexecution":2765,"ĠCoriolanus":2766,"Ġguilty":2767,"Ġpretty":2768,"ĠPompey":2769,"Ġangry":2770,"Fa":2771,"Mar":2772,"Master":2773,"PAR":2774,"RA":2775,"VINCENTIO":2776,"awn":2777,"dge":2778,"fully":2779,"gue":2780,"ked":2781,"med":2782,"ual":2783,"vol":2784,"zen":2785,"Ġap":2786,"Ġshi":2787,"Ġsho":2788,"Ġmed":2789,"Ġmod":2790,"Ġwalk":2791,"Ġfam":2792,"Ġfled":2793,"eness":2794,"Ġyear":2795,"Ġob":2796,"Ġocc":2797,"Ġhap":2798,"Ġmeasure":2799,"Ġforsw":2800,"adua":2801,"Ġreign":2802,"Ġdoom":2803,"ames":2804,"Ġnob":2805,"rupt":2806,"Ġourselves":2807,"Ġfavour":2808,"Ġneck":2809,"Ġshows":2810,"ended":2811,"Ġblow":2812,"Ġgovern":2813,"Ġwouldst":2814,"Ġletters":2815,"Ġunc":2816,"Ġunk":2817,"Ġworst":2818,"Ġspeaks":2819,"Ġmarch":2820,"ighb":2821,"ĠKatharina":2822,"Ġgreater":2823,"Ġleisure":2824,"osition":2825,"Ġtreason":2826,"ĠEnglish":2827,"Ġbanishment":2828,"Ġsense":2829,"remio":2830,"Ġcondemn":2831,"ointed":2832,"Ġdishonour":2833,"Ġclouds":2834,"Ġbreathe":2835,"Ġforbid":2836,"Ġliberty":2837,"Ġladies":2838,"Ġtrouble":2839,"rumio":2840,"ĠIsabel":2841,"counter":2842,"antagen":2843,"PARIS":2844,":'":2845,"Int":2846,"Out":2847,"Too":2848,"While":2849,"aves":2850,"acle":2851,"dle":2852,"house":2853,"rim":2854,"rous":2855,"ĠX":2856,"Ġsort":2857,"Ġmorrow":2858,"Ġwon":2859,"Ġdry":2860,"Ġcru":2861,"Ġlan":2862,"Ġlist":2863,"Ġlaid":2864,"aring":2865,"Ġobey":2866,"Ġheld":2867,"vel":2868,"ster":2869,"ators":2870,"Ġbehind":2871,"set":2872,"Ġnote":2873,"Ġstor":2874,"ider":2875,"Ġref":2876,"Ġlived":2877,"urs":2878,"Ġaside":2879,"Ġdog":2880,"Ġnoise":2881,"Ġseat":2882,"iles":2883,"Ġvain":2884,"ĠMerc":2885,"ĠBohemia":2886,"Ġletter":2887,"Ġjoin":2888,"ounds":2889,"Ġprosper":2890,"Ġrough":2891,"Ġabove":2892,"ize":2893,"Ġremain":2894,"Ġlonger":2895,"Ġwomb":2896,"Ġneeds":2897,"Ġchoose":2898,"Ġchurch":2899,"Ġprisoner":2900,"Ġsecond":2901,"Ġtemp":2902,"Ġgolden":2903,"undred":2904,"Ġdispatch":2905,"Ġpiece":2906,"Ġfresh":2907,"Ġignor":2908,"Ġbecause":2909,"antagenet":2910,"!--":2911,"Am":2912,"De":2913,"DOR":2914,"EW":2915,"En":2916,"Hark":2917,"LAR":2918,"Pr":2919,"Su":2920,"TIUS":2921,"bb":2922,"ban":2923,"cal":2924,"ffect":2925,"him":2926,"iled":2927,"ny":2928,"ts":2929,"under":2930,"ulet":2931,"ĠNow":2932,"Ġtent":2933,"Ġsch":2934,"Ġsus":2935,"Ġsaint":2936,"Ġmut":2937,"inius":2938,"Ġbig":2939,"Ġbroke":2940,"Ġbones":2941,"Ġfat":2942,"Ġfine":2943,"Ġfive":2944,"erle":2945,"itors":2946,"Ġdrown":2947,"Ġcitizens":2948,"Ġlen":2949,"Ġlow":2950,"Ġlust":2951,"Ġlau":2952,"Ġthreat":2953,"Ġhundred":2954,"Ġobed":2955,"Ġpet":2956,"vey":2957,"ang":2958,"Ġoft":2959,"Ġbend":2960,"Ġbell":2961,"Ġind":2962,"ceit":2963,"lease":2964,"ety":2965,"Ġeffect":2966,"Ġyourselves":2967,"Ġstood":2968,"Ġstain":2969,"Ġsteel":2970,"Ġsteal":2971,"ords":2972,"asion":2973,"Ġrevere":2974,"Ġsole":2975,"ARIEL":2976,"ease":2977,"Ġknees":2978,"ular":2979,"icious":2980,"Ġconqu":2981,"ieu":2982,"Ġblessed":2983,"ĠGaunt":2984,"ĠGremio":2985,"Ġshed":2986,"ĠLet":2987,"ĠLEW":2988,"Ġswift":2989,"ĠHortensio":2990,"Ġgrand":2991,"Ġproclaim":2992,"ĠPr":2993,"ĠPadua":2994,"Ġsaf":2995,"ume":2996,"ĠWatch":2997,"istress":2998,"Ġexc":2999,"Ġdesperate":3000,"Ġslander":3001,"Ġprecious":3002,"Ġbears":3003,"Ġappare":3004,"Ġconscience":3005,"Ġentertain":3006,"ontent":3007,"Ġpride":3008,"Sirrah":3009,"uthor":3010,"Ġglory":3011,"Ġdouble":3012,"atesby":3013,"Ġwoes":3014,"posed":3015,"Ġlands":3016,"Ġsentence":3017,"ĠNorthumberland":3018,"Ġdrunk":3019,"Ġtowards":3020,"ĠCapulet":3021,"Unto":3022,"Ġforgot":3023,"Ġwisdom":3024,"Ġvenge":3025,"Sweet":3026,"Ġvictory":3027,"Ġkinsman":3028,"ĠXI":3029,"LARTIUS":3030,"ĠLEWIS":3031,"ĠWatchman":3032,";'":3033,"Bel":3034,"Could":3035,"Hear":3036,"MP":3037,"Me":3038,"Pardon":3039,"Pedant":3040,"RTIS":3041,"bray":3042,"den":3043,"gment":3044,"hn":3045,"iance":3046,"ohn":3047,"pir":3048,"ude":3049,"vail":3050,"which":3051,"head":3052,"Ġauthor":3053,"Ġsour":3054,"Ġmount":3055,"Ġmethinks":3056,"Ġmoney":3057,"Ġmasters":3058,"rent":3059,"rence":3060,"Ġfe":3061,"Ġfru":3062,"Ġfought":3063,"Ġfew":3064,"Ġdied":3065,"Ġdeter":3066,"Ġcapt":3067,"Ġpun":3068,"owbray":3069,"Ġhair":3070,"irl":3071,"Ġeld":3072,"Ġstud":3073,"estion":3074,"Ġdoing":3075,"iful":3076,"Ġseal":3077,"ility":3078,"ĠCa":3079,"cted":3080,"ETER":3081,"Ġmanner":3082,"ĠEarl":3083,"ĠGo":3084,"ĠGrumio":3085,"Ġknowledge":3086,"umerle":3087,"Ġenjoy":3088,"Ġran":3089,"ĠAnt":3090,"Within":3091,"Ġalive":3092,"Ġabro":3093,"ways":3094,"Ġhonours":3095,"Ġwarm":3096,"ations":3097,"Ġdeadly":3098,"Ġkept":3099,"Ġcontr":3100,"Ġcontin":3101,"Ġarmy":3102,"Ġlordship":3103,"Ġguest":3104,"Ġguess":3105,"CURTIS":3106,"Ġpromised":3107,"comes":3108,"eeper":3109,"Ġwretched":3110,"Ġdespair":3111,"Ġcheeks":3112,"SAMP":3113,"Ġlabour":3114,"Ġstruck":3115,"Faith":3116,"Ġdeterm":3117,"SAMPSON":3118,"'re":3119,":--":3120,"BU":3121,"Br":3122,"Citizens":3123,"Dis":3124,"EX":3125,"Either":3126,"IGON":3127,"bury":3128,"ey":3129,"good":3130,"mit":3131,"take":3132,"Ġtry":3133,"Ġteach":3134,"Ġaid":3135,"ounce":3136,"Ġsim":3137,"reed":3138,"Ġbastard":3139,"orious":3140,"llow":3141,"ited":3142,"Ġdance":3143,"Ġcorn":3144,"Ġcred":3145,"Ġcried":3146,"Ġpal":3147,"Ġhel":3148,"Ġhealth":3149,"stant":3150,"utio":3151,"ourn":3152,"Ġliest":3153,"Ġdeg":3154,"Ġdemand":3155,"Ġshake":3156,"eaven":3157,"ament":3158,"Ġsever":3159,"Ġherself":3160,"Ġspent":3161,"ĠMaster":3162,"ĠMowbray":3163,"Ġwhether":3164,"Ġamong":3165,"Ġshepherd":3166,"othing":3167,"ppy":3168,"Ġunp":3169,"Ġunw":3170,"ĠHow":3171,"Ġquoth":3172,"Ġprov":3173,"umb":3174,"Ġplant":3175,"ĠWill":3176,"ĠWhy":3177,"osed":3178,"Ġencounter":3179,"Ġrot":3180,"Ġofficer":3181,"Ġbrothers":3182,"Ġearly":3183,"Ġhonourable":3184,"Ġflowers":3185,"LEY":3186,"Ġcalls":3187,"Ġwhite":3188,"Ġremed":3189,"Ġmoved":3190,"Ġaccount":3191,"ewis":3192,"Ġkindred":3193,"Ġpriest":3194,"Ġguard":3195,"Ġcharity":3196,"Ġunderstand":3197,"Ġfoolish":3198,"Ġhumble":3199,"Ġcounter":3200,"Ġdreams":3201,"Ġgreet":3202,"ANTIGON":3203,"Ġvalour":3204,"Ġjudge":3205,"Ġwretch":3206,"Ġbeggar":3207,"Ġsummer":3208,"Ġtriumph":3209,"Ġcruel":3210,"BURY":3211,"ANTIGONUS":3212,"Bet":3213,"Fear":3214,"Lo":3215,"Mine":3216,"Made":3217,"TCLIFF":3218,"True":3219,"fall":3220,"mon":3221,"rison":3222,"ĠAnd":3223,"heart":3224,"ining":3225,"Ġwail":3226,"orthy":3227,"Ġfart":3228,"Ġfaint":3229,"ites":3230,"Ġdin":3231,"Ġdwell":3232,"Ġyea":3233,"Ġthro":3234,"Ġhung":3235,"Ġpack":3236,"Ġga":3237,"Ġgent":3238,"leep":3239,"Ġforce":3240,"Ġweary":3241,"Ġstone":3242,"Ġstars":3243,"ask":3244,"roy":3245,"Ġbutcher":3246,"ify":3247,"Ġseven":3248,"Ġanon":3249,"Ġours":3250,"ĠCom":3251,"Ġneighb":3252,"ĠRoman":3253,"Ġvie":3254,"ief":3255,"Ġblame":3256,"Ġgoing":3257,"ĠLewis":3258,"Ġthereof":3259,"Ġunf":3260,"Ġuns":3261,"Ġenvy":3262,"Ġrise":3263,"Ġthinks":3264,"Ġrid":3265,"Ġparty":3266,"Ġadd":3267,"Ġothers":3268,"ĠJohn":3269,"ians":3270,"Ġkindness":3271,"Ġchast":3272,"Ġbids":3273,"Ġbright":3274,"Ġglass":3275,"Ġmiser":3276,"Ġcrave":3277,"Twas":3278,"Ġwinter":3279,"Ġmonth":3280,"Ġminister":3281,"Ġwalls":3282,"Ġextrem":3283,"Ġsatisfied":3284,"Ġprivate":3285,"ĠVolsces":3286,"Ġidle":3287,"Ġscarce":3288,"Ġbenef":3289,"RATCLIFF":3290,"Ġlaugh":3291,"Ġvengeance":3292,"Ġabroad":3293,"Ġview":3294,"After":3295,"Bid":3296,"BIS":3297,"Fie":3298,"Gentle":3299,"HOP":3300,"Ne":3301,"Never":3302,"Signior":3303,"Under":3304,"aff":3305,"gra":3306,"ners":3307,"ope":3308,"shall":3309,"ued":3310,"vious":3311,"whe":3312,"woman":3313,"Ġver":3314,"incentio":3315,"Ġwre":3316,"Ġwench":3317,"rees":3318,"have":3319,"orous":3320,"Ġfirm":3321,"Ġcir":3322,"Ġcorse":3323,"enes":3324,"Ġlest":3325,"Ġhol":3326,"vell":3327,"ott":3328,"omas":3329,"att":3330,"ating":3331,"Ġincl":3332,"cell":3333,"utland":3334,"Ġformer":3335,"Ġease":3336,"riar":3337,"ident":3338,"Ġrel":3339,"Ġreceived":3340,"Ġdeal":3341,"amp":3342,"Ġsport":3343,"Ġfaire":3344,"ANLEY":3345,"ĠRutland":3346,"Ġvile":3347,"Ġshrew":3348,"antua":3349,"ĠMantua":3350,"Ġconcl":3351,"Ġconvey":3352,"Ġgod":3353,"allow":3354,"ĠBarn":3355,"Ġarri":3356,"Ġunb":3357,"ĠHer":3358,"ĠVincentio":3359,"Ġmayst":3360,"eless":3361,"Ġquite":3362,"Ġprovost":3363,"IST":3364,"Ġtruly":3365,"Ġdism":3366,"Off":3367,"Ġfoes":3368,"Ġroot":3369,"Ġwherefore":3370,"Ġflower":3371,"Ġimag":3372,"Ġtrial":3373,"ailor":3374,"Ġsmo":3375,"Ġtrem":3376,"Ġfellows":3377,"rench":3378,"Ġchanged":3379,"Ġcover":3380,"Ġhumour":3381,"Ġboot":3382,"Ġswords":3383,"Ġdeputy":3384,"Ġcondition":3385,"Ġjudgment":3386,"change":3387,"Ġtyrant":3388,"Ġacqu":3389,"Ġevil":3390,"BALT":3391,"TYBALT":3392,"Whilst":3393,"Ġeasy":3394,"ĠMercutio":3395,"Ġschool":3396,"Ġexcuse":3397,"Ġfruit":3398,"BISHOP":3399,"'?":3400,"AL":3401,"Bl":3402,"Des":3403,"Ex":3404,"KEN":3405,"Methinks":3406,"Put":3407,"Tut":3408,"ault":3409,"after":3410,"con":3411,"ek":3412,"ead":3413,"ered":3414,"his":3415,"oot":3416,"pin":3417,"roth":3418,"rate":3419,"shi":3420,"ta":3421,"vish":3422,"Ġtaken":3423,"Ġwither":3424,"Ġba":3425,"Ġbrow":3426,"Ġbite":3427,"Ġbrows":3428,"Ġfain":3429,"Ġfeed":3430,"erona":3431,"Ġdust":3432,"Ġdull":3433,"enance":3434,"Ġthunder":3435,"Ġpains":3436,"anley":3437,"Ġgown":3438,"Ġgrown":3439,"Ġgift":3440,"Ġghost":3441,"Ġgirl":3442,"Ġbeha":3443,"Ġmeat":3444,"rift":3445,"Ġstab":3446,"Ġstoop":3447,"idings":3448,"ract":3449,"arden":3450,"Ġspe":3451,"Ġspake":3452,"Ġspring":3453,"ilia":3454,"ĠCatesby":3455,"Ġknave":3456,"AND":3457,"Ġvice":3458,"aste":3459,"Ġshore":3460,"Ġproof":3461,"Ġblest":3462,"Ġblind":3463,"ement":3464,"Ġsirrah":3465,"Ġunl":3466,"Ġquestion":3467,"Ġjoint":3468,"cians":3469,"ĠWe":3470,"ĠAl":3471,"ĠAumerle":3472,"Ġhonesty":3473,"ursed":3474,"Ġleaves":3475,"Ġtwice":3476,"aper":3477,"ĠKeeper":3478,"Ġprevent":3479,"OMAS":3480,"there":3481,"ĠMars":3482,"Ġrepent":3483,"Ġtraitors":3484,"twixt":3485,"Ġimport":3486,"Ġwrongs":3487,"Ġburied":3488,"ealous":3489,"place":3490,"Ġreasons":3491,"Alack":3492,"Ġsenate":3493,"Ġgreen":3494,"Ġaffair":3495,"acher":3496,"Ġchoice":3497,"azed":3498,"Ġdivine":3499,"ĠCorioli":3500,"Ġwhilst":3501,"Ġstop":3502,"Ġtyran":3503,"Ġprophe":3504,"Ġembrace":3505,"Ġmalice":3506,"BRAKEN":3507,"ĠPlantagenet":3508,"Ġsacred":3509,"Ġfiery":3510,"Ġinnocent":3511,"ĠPaulina":3512,"Ġleng":3513,"ĠPrince":3514,"Ġsafety":3515,"ĠCominius":3516,"BRAKENBURY":3517,"?'":3518,"Ad":3519,"DER":3520,"DON":3521,"Edward":3522,"GOR":3523,"Hence":3524,"Ind":3525,"MIST":3526,"Once":3527,"Richard":3528,"RESS":3529,"cha":3530,"draw":3531,"eld":3532,"go":3533,"mn":3534,"my":3535,"more":3536,"nat":3537,"op":3538,"oly":3539,"oard":3540,"pet":3541,"port":3542,"poll":3543,"sic":3544,"would":3545,"Ġed":3546,"ĠTo":3547,"Ġavo":3548,"Ġsits":3549,"inous":3550,"Ġwag":3551,"Ġwings":3552,"rehe":3553,"Ġbark":3554,"orry":3555,"Ġfury":3556,"Ġfinger":3557,"erset":3558,"itol":3559,"Ġcustom":3560,"enen":3561,"anch":3562,"omerset":3563,"Ġgross":3564,"Ġgarden":3565,"Ġinform":3566,"edious":3567,"Ġused":3568,"Ġweeds":3569,"Ġele":3570,"Ġeag":3571,"Ġstones":3572,"Ġdec":3573,"Ġdoor":3574,"Ġnose":3575,"Ġallow":3576,"think":3577,"Ġanger":3578,"ardine":3579,"Ġloath":3580,"Ġloyal":3581,"ellow":3582,"Ġfares":3583,"Ġnecess":3584,"Ġknight":3585,"ctise":3586,"Ġshr":3587,"Ġoracle":3588,"ĠOVER":3589,"Myself":3590,"hysic":3591,"Ġmayor":3592,"elve":3593,"Ġhollow":3594,"Ġsail":3595,"Ġplague":3596,"unning":3597,"Ġround":3598,"Ġfright":3599,"icked":3600,"Without":3601,"Ġalways":3602,"Ġrob":3603,"Ġrock":3604,"Ġwherein":3605,"Ġdesign":3606,"Wherein":3607,"aughters":3608,"Ġadieu":3609,"Ġcommend":3610,"Ġclaim":3611,"Ġprevail":3612,"Ġprayer":3613,"PETER":3614,"Ġplead":3615,"Ġperceive":3616,"Ġtroth":3617,"Ġrude":3618,"Ġtongues":3619,"Ġsubst":3620,"Ġsmile":3621,"Ġimprison":3622,"Ġcares":3623,"GREGOR":3624,"Ġdrawn":3625,"Ġempt":3626,"Ġwanton":3627,"Ġassist":3628,"unts":3629,"Ġtempt":3630,"Ġdeserve":3631,"Ġdelight":3632,"ĠCapitol":3633,"Ġpractise":3634,"Ġcheek":3635,"Ġabsence":3636,"ĠThomas":3637,"Ġdrop":3638,"Ġcreature":3639,"Ġtrumpets":3640,"Ġutter":3641,"Ġlangu":3642,"Ġignorant":3643,"Brother":3644,"Ġrotten":3645,"Ġremedy":3646,"Ġcirc":3647,"ĠBarnardine":3648,"DERBY":3649,"DONE":3650,"Indeed":3651,"MISTRESS":3652,"enenius":3653,"ĠOVERDONE":3654,"GREGORY":3655,"Art":3656,"CH":3657,"Dost":3658,"FORD":3659,"OX":3660,"Poor":3661,"Res":3662,"RICH":3663,"SOM":3664,"Turn":3665,"VAL":3666,"act":3667,"dy":3668,"eous":3669,"mion":3670,"sing":3671,"thi":3672,"what":3673,"yard":3674,"Ġes":3675,"ĠWhere":3676,"Ġtune":3677,"Ġtidings":3678,"Ġtedious":3679,"held":3680,"Ġaim":3681,"Ġaught":3682,"Ġship":3683,"Ġsens":3684,"Ġwent":3685,"Ġwont":3686,"Ġwives":3687,"Ġwicked":3688,"haps":3689,"isa":3690,"ises":3691,"onounce":3692,"Ġdur":3693,"Ġcre":3694,"Ġcell":3695,"Ġcure":3696,"Ġcarry":3697,"Ġcries":3698,"esy":3699,"Ġnumber":3700,"Ġlar":3701,"Ġloud":3702,"Ġthrust":3703,"Ġhit":3704,"Ġhid":3705,"Ġpil":3706,"Ġpair":3707,"othe":3708,"Ġbecomes":3709,"cend":3710,"utes":3711,"iment":3712,"rious":3713,"Ġstar":3714,"Ġstat":3715,"Ġsteed":3716,"ashi":3717,"Ġreceive":3718,"Ġasleep":3719,"Ġdew":3720,"Ġdeceived":3721,"Ġdeposed":3722,"Ġshar":3723,"this":3724,"ards":3725,"hant":3726,"Ġvantage":3727,"ERIA":3728,"ERSET":3729,"ĠMusic":3730,"Ġconj":3731,"ongs":3732,"ĠGrey":3733,"Ġsheep":3734,"Ġtherein":3735,"ĠSic":3736,"ĠSomerset":3737,"ĠVerona":3738,"Ġjealous":3739,"Ġshouldst":3740,"Ġproper":3741,"Ġras":3742,"Ġoutward":3743,"Ġwhole":3744,"Ġoffend":3745,"ĠYour":3746,"Ġalas":3747,"Ġheav":3748,"Ġearn":3749,"eeth":3750,"Ġmeaning":3751,"aced":3752,"Ġchief":3753,"Ġbegins":3754,"ĠJove":3755,"Ġruin":3756,"loved":3757,"ission":3758,"Ġresign":3759,"Ġfollows":3760,"Ġtread":3761,"Ġtreacher":3762,"ethought":3763,"Ġbanished":3764,"Ġpassing":3765,"Ġwoful":3766,"Ġdevise":3767,"Ġfollowers":3768,"Ġfools":3769,"Ġmaids":3770,"Show":3771,"Ġadvise":3772,"Ġgives":3773,"itting":3774,"Ġrememb":3775,"Ġawake":3776,"Ġborne":3777,"Ġsupper":3778,"Ġlamb":3779,"Ġcondu":3780,"aze":3781,"Ġsilence":3782,"Ġpossible":3783,"Having":3784,"Ġprofess":3785,"Ġdespite":3786,"MOND":3787,"Ġgarments":3788,"Ġcastle":3789,"Ġthrive":3790,"Ġexpress":3791,"Ġundone":3792,"Ġdreadful":3793,"Ġbabe":3794,"Ġprotect":3795,"Besides":3796,"Ġbroken":3797,"Ġviolent":3798,"ĠChristian":3799,"Ġpubl":3800,"Ġoccasion":3801,"Ġnobles":3802,"Into":3803,"ursday":3804,"Ġfatal":3805,"Ġbelly":3806,"Ġauthority":3807,"Ġsimple":3808,"Ġfarther":3809,"Ġthroat":3810,"Ġbenefit":3811,"pinion":3812,"Ġaffairs":3813,"pollo":3814,"OXFORD":3815,"RICHMOND":3816,"SOMERSET":3817,"VALERIA":3818,"mione":3819,"AMIL":3820,"BUS":3821,"Great":3822,"HY":3823,"Hast":3824,"LIUS":3825,"MOP":3826,"MAMIL":3827,"Per":3828,"Tybalt":3829,"Tailor":3830,"Very":3831,"app":3832,"cing":3833,"can":3834,"eg":3835,"fl":3836,"father":3837,"gle":3838,"iond":3839,"oat":3840,"pr":3841,"ron":3842,"son":3843,"ub":3844,"Ġer":3845,"Ġir":3846,"ĠThere":3847,"Ġtort":3848,"Ġtaste":3849,"Ġsan":3850,"Ġsix":3851,"Ġsorry":3852,"Ġwine":3853,"Ġwander":3854,"Ġband":3855,"Ġbond":3856,"erved":3857,"itude":3858,"Ġdet":3859,"Ġdue":3860,"Ġcal":3861,"Ġcam":3862,"Ġcunning":3863,"ene":3864,"enn":3865,"Ġnine":3866,"Ġnames":3867,"Ġlend":3868,"arch":3869,"Ġtop":3870,"Ġpin":3871,"Ġpawn":3872,"Ġpaper":3873,"Ġphysic":3874,"Ġgain":3875,"Ġgage":3876,"Ġbelike":3877,"Ġbeheld":3878,"Ġinfect":3879,"ldom":3880,"eding":3881,"utation":3882,"Ġweight":3883,"Ġweap":3884,"ills":3885,"Ġequ":3886,"enture":3887,"Ġstore":3888,"Ġstep":3889,"Ġstock":3890,"Ġstuff":3891,"Ġrenown":3892,"rand":3893,"Ġlip":3894,"Ġdeare":3895,"room":3896,"eave":3897,"usion":3898,"iffe":3899,"Ġseas":3900,"Ġsup":3901,"run":3902,"Ġange":3903,"Ġlod":3904,"ello":3905,"Ġspend":3906,"Ġspare":3907,"hop":3908,"Ġvan":3909,"ouses":3910,"Ġshut":3911,"ustice":3912,"ĠMOW":3913,"ĠMenenius":3914,"olix":3915,"Ġsway":3916,"Ġbrook":3917,"Ġkingly":3918,"ĠBona":3919,"Ġunnat":3920,"ĠHarry":3921,"Ġquit":3922,"imely":3923,"Ġenvious":3924,"Ġrash":3925,"Ġdisd":3926,"ABHOR":3927,"Ġroom":3928,"Ġexile":3929,"Ġexcell":3930,"Ġdesert":3931,"Ġgentlewoman":3932,"Ġflight":3933,"Ġtwelve":3934,"Ġparts":3935,"Ġprey":3936,"THOMAS":3937,"Ġperil":3938,"Ġperish":3939,"Ġtrans":3940,"iteous":3941,"ĠFriar":3942,"Ġwhither":3943,"swain":3944,"Ġuntil":3945,"Ġaffect":3946,"Ġlean":3947,"Ġlegs":3948,"orses":3949,"Ġkeeps":3950,"Ġaccus":3951,"STANLEY":3952,"Ġprize":3953,"Ġpursu":3954,"Ġchair":3955,"Ġcountenance":3956,"Ġpleased":3957,"ounty":3958,"Ġhumbly":3959,"Ġcourtesy":3960,"Ġadvantage":3961,"Ġcurst":3962,"ploy":3963,"Ġspirits":3964,"Two":3965,"Ġintend":3966,"Ġdenied":3967,"ancy":3968,"Ġdisposition":3969,"Ġbetwixt":3970,"Ġsilver":3971,"Ġdelay":3972,"Ġresolve":3973,"ĠThursday":3974,"Ġwedding":3975,"Ġsighs":3976,"Ġhurt":3977,"BRAY":3978,"Ġcolour":3979,"Ġclear":3980,"Ġowe":3981,"Ġprepared":3982,"Ġdamned":3983,"Ġshadow":3984,"Ġpleasant":3985,"Ġforsworn":3986,"Ġstorm":3987,"Death":3988,"Ġthreaten":3989,"Ġconquer":3990,"Ġpunish":3991,"ĠCaius":3992,"Ġcontrary":3993,"EXETER":3994,"Ġpalace":3995,"Ġdinner":3996,"Ġneighbour":3997,"Ġmiserable":3998,"Ġspeci":3999,"Ġempty":4000,"ĠMusician":4001,"BUSHY":4002,"MOPSA":4003,"MAMILLIUS":4004,"iondello":4005,"Ġsanct":4006,"ĠMOWBRAY":4007,"olixenes":4008,"ABHORSON":4009,"CY":4010,"Cousin":4011,"Ed":4012,"Know":4013,"None":4014,"Nothing":4015,"Pre":4016,"Ret":4017,"Right":4018,"Rem":4019,"Rep":4020,"Sc":4021,"Sha":4022,"Widow":4023,"bow":4024,"born":4025,"grace":4026,"hor":4027,"hore":4028,"lar":4029,"mity":4030,"oc":4031,"oke":4032,"par":4033,"ping":4034,"pic":4035,"pass":4036,"tune":4037,"urious":4038,"we":4039,"wise":4040,"yond":4041,"ĠWhen":4042,"Ġtut":4043,"Ġtable":4044,"Ġscept":4045,"Ġmiss":4046,"Ġmurderer":4047,"Ġmaking":4048,"Ġmotion":4049,"Ġmourn":4050,"Ġwot":4051,"Ġwood":4052,"Ġwol":4053,"Ġwond":4054,"rease":4055,"Ġbas":4056,"Ġbare":4057,"Ġball":4058,"Ġbud":4059,"ising":4060,"Ġfle":4061,"Ġfro":4062,"Ġfee":4063,"Ġfashi":4064,"erve":4065,"Ġdi":4066,"Ġdign":4067,"Ġdies":4068,"Ġdag":4069,"Ġdaughters":4070,"Ġcens":4071,"Ġcup":4072,"Ġcalm":4073,"ency":4074,"Ġnaked":4075,"Ġyonder":4076,"Ġopinion":4077,"Ġpure":4078,"Ġport":4079,"Ġpainted":4080,"Ġpiteous":4081,"Ġheed":4082,"ote":4083,"ane":4084,"Ġgate":4085,"Ġbew":4086,"Ġbeloved":4087,"sequ":4088,"irg":4089,"Ġmend":4090,"ourish":4091,"Ġweigh":4092,"rib":4093,"Ġstory":4094,"Ġreward":4095,"urance":4096,"Ġdebt":4097,"Ġones":4098,"ARCH":4099,"amed":4100,"Ġseest":4101,"Three":4102,"ruly":4103,"thou":4104,"Ġfail":4105,"ERCY":4106,"que":4107,"Ġgoodness":4108,"Ġpronounce":4109,"Ġcomple":4110,"ĠMessenger":4111,"Ġamb":4112,"Ġamen":4113,"outs":4114,"oler":4115,"Ġhatred":4116,"Ġtheirs":4117,"ĠBiondello":4118,"Ġarg":4119,"igence":4120,"Ġquench":4121,"Ġhopes":4122,"cio":4123,"cian":4124,"Ġseeing":4125,"ĠPro":4126,"ĠPeter":4127,"ĠPisa":4128,"ĠPolixenes":4129,"ĠPERCY":4130,"umble":4131,"Ġplot":4132,"Ġdiss":4133,"Ġexpect":4134,"Ġslow":4135,"Ġado":4136,"THAS":4137,"ĠDid":4138,"Ġperfect":4139,"Ġperpet":4140,"Ġwrath":4141,"Thanks":4142,"lesome":4143,"ĠFl":4144,"Ġremains":4145,"Ġcrowns":4146,"Ġhark":4147,"Ġcourage":4148,"Ġwits":4149,"clock":4150,"Ġaccess":4151,"Ġaccuse":4152,"Ġfolly":4153,"Only":4154,"Ġends":4155,"Ġendure":4156,"Ġneedful":4157,"Still":4158,"Ġbodies":4159,"Ġjoys":4160,"Ġjoyful":4161,"Ġfortunes":4162,"Ġmistake":4163,"Ġnatural":4164,"Ġhappiness":4165,"Ġmisery":4166,"Ġundertake":4167,"Ġchide":4168,"Ġattempt":4169,"Ġadvance":4170,"Ġcurses":4171,"Ġemploy":4172,"Ġassurance":4173,"Ġpersu":4174,"Ġdiscontent":4175,"Ġsenators":4176,"Ġcrack":4177,"Ġintent":4178,"Ġsometime":4179,"Ġwounded":4180,"Ġspoken":4181,"Ġdrum":4182,"Ġmarket":4183,"cape":4184,"Ġwaters":4185,"Ġcursed":4186,"Ġinstruct":4187,"Ġinstrument":4188,"ĠNap":4189,"ĠRivers":4190,"Ġterror":4191,"Ġresolved":4192,"chance":4193,"Ġwhiles":4194,"Ġcorrupt":4195,"ney":4196,"Ġburthen":4197,"Ġgriev":4198,"Ġduked":4199,"Ġaccept":4200,"Ġgroan":4201,"BALTHAS":4202,"Ġcolours":4203,"Ġpenit":4204,"Ġprotest":4205,"Ġprinces":4206,"Ġprincess":4207,"ĠStanley":4208,"Ġgovernment":4209,"Prithee":4210,"Ġobedience":4211,"Ġpetition":4212,"Ġsolemn":4213,"Believe":4214,"Ġcontinue":4215,"Ġcredit":4216,"Ġseveral":4217,"hearted":4218,"Ġwreck":4219,"Ġlanguage":4220,"Ġcircum":4221,"Ġdurst":4222,"Ġremembrance":4223,"Ġpublic":4224,"Ġunnatural":4225,"picion":4226,"Ġdukedom":4227,"BALTHASAR":4228,"?--":4229,"Ar":4230,"App":4231,"AEd":4232,"Bear":4233,"Boat":4234,"Father":4235,"FOL":4236,"Heaven":4237,"Love":4238,"Might":4239,"Mark":4240,"OS":4241,"Post":4242,"Page":4243,"Save":4244,"afe":4245,"bear":4246,"do":4247,"dds":4248,"ex":4249,"fer":4250,"gers":4251,"how":4252,"ipe":4253,"just":4254,"lic":4255,"oe":4256,"oved":4257,"ped":4258,"pro":4259,"sc":4260,"same":4261,"time":4262,"uary":4263,"val":4264,"vours":4265,"yr":4266,"ĠNay":4267,"ĠThey":4268,"Ġtest":4269,"Ġteeth":4270,"hest":4271,"Ġsink":4272,"Ġsins":4273,"Ġmag":4274,"Ġmile":4275,"ination":4276,"happy":4277,"ishop":4278,"Ġfame":4279,"erd":4280,"ita":4281,"Ġcock":4282,"Ġcease":4283,"ences":4284,"Ġnought":4285,"Ġled":4286,"aries":4287,"Ġhost":4288,"Ġhunt":4289,"Ġhouses":4290,"Ġhorses":4291,"Ġodd":4292,"Ġobs":4293,"Ġodds":4294,"Ġtomb":4295,"Ġpol":4296,"Ġpowers":4297,"strous":4298,"omp":4299,"omen":4300,"atic":4301,"atience":4302,"Ġbeyond":4303,"Ġhaz":4304,"uted":4305,"Ġmere":4306,"Ġisle":4307,"Ġisland":4308,"ourage":4309,"Ġeast":4310,"Ġits":4311,"Ġkin":4312,"idence":4313,"Ġrepe":4314,"Ġrealm":4315,"Ġshape":4316,"uses":4317,"ified":4318,"Ġseize":4319,"Those":4320,"Ġspite":4321,"Ġfaces":4322,"ĠCan":4323,"ĠCal":4324,"ĠROS":4325,"Ġvault":4326,"Ġvirg":4327,"Ġshun":4328,"ants":4329,"Ġcomest":4330,"Ġmanners":4331,"ĠEl":4332,"icular":4333,"Ġconc":4334,"ieved":4335,"Ġblock":4336,"Ġblush":4337,"ĠGood":4338,"ared":4339,"arent":4340,"olute":4341,"Ġhereafter":4342,"Ġswallow":4343,"Ġbrings":4344,"ĠSo":4345,"ĠBl":4346,"elt":4347,"Ġqual":4348,"Ġjour":4349,"Young":4350,"akest":4351,"ument":4352,"Ġfathers":4353,"ĠWho":4354,"Ġenmity":4355,"Ġring":4356,"CAS":4357,"ĠYet":4358,"Ġalter":4359,"Ġlooking":4360,"Ġfriendly":4361,"Ġslay":4362,"Ġflies":4363,"ĠTake":4364,"Ġfairly":4365,"tled":4366,"Ġadvers":4367,"Ġclo":4368,"Ġwrite":4369,"Ġtrade":4370,"Ġways":4371,"Ġscope":4372,"Ġscene":4373,"aintain":4374,"they":4375,"Ġkey":4376,"ĠFrench":4377,"Ġapprehe":4378,"Ġcontract":4379,"Ġwhore":4380,"Ġarmour":4381,"ctions":4382,"Ġuntimely":4383,"ression":4384,"Ġimm":4385,"Ġrepair":4386,"Ġrule":4387,"Ġleads":4388,"Ġslept":4389,"Ġaccord":4390,"Ġpurcha":4391,"Ġcompass":4392,"orset":4393,"Ġseeming":4394,"Ġbrain":4395,"Ġglorious":4396,"Ġimposs":4397,"Ġpassage":4398,"Ġmaiden":4399,"Ġhateful":4400,"Ġstrew":4401,"Ġturns":4402,"uteous":4403,"Ġinstant":4404,"Ġboar":4405,"Ġwants":4406,"NORFOL":4407,"Ġdiscover":4408,"Ġcommanded":4409,"Ġhanging":4410,"Ġcontented":4411,"Ġdares":4412,"Ġfreely":4413,"Ġgrey":4414,"Ġservices":4415,"Ġtemper":4416,"Ġdrums":4417,"Ġcholer":4418,"Ġgrows":4419,"Ġdeserves":4420,"noon":4421,"ĠLucio":4422,"Ġgranted":4423,"Comm":4424,"Ġterms":4425,"Ġincrease":4426,"Ġresolution":4427,"Ġshortly":4428,"Ġvex":4429,"Ġpraise":4430,"Ġabsent":4431,"Ġvenom":4432,"Ġdrops":4433,"Ġprivile":4434,"Ġrespected":4435,"Ġframe":4436,"Beseech":4437,"Ġapproach":4438,"Ġcomplain":4439,"Ġtorment":4440,"Ġunknown":4441,"Ġprosperous":4442,"DORCAS":4443,"Ġsuspicion":4444,"Ġreverend":4445,"Ġapparel":4446,"Ġcaptain":4447,"Ġdegree":4448,"ĠHermione":4449,"Ġsmooth":4450,"Ġlarge":4451,"Ġsharp":4452,"Ġearnest":4453,"Ġcamest":4454,"Ġdisdain":4455,"Ġexcellent":4456,"Ġsceptre":4457,"Ġdagger":4458,"ĠNaples":4459,"Boatswain":4460,"ĠROSS":4461,"NORFOLK":4462,"Amen":4463,"Boy":4464,"Came":4465,"Cons":4466,"DIN":4467,"Dear":4468,"FER":4469,"GH":4470,"Ghost":4471,"Has":4472,"Long":4473,"Mistress":4474,"NS":4475,"Please":4476,"RR":4477,"Roman":4478,"Set":4479,"Wilt":4480,"Worthy":4481,"aces":4482,"aily":4483,"bri":4484,"bra":4485,"dis":4486,"fret":4487,"gl":4488,"gar":4489,"iven":4490,"iate":4491,"ipp":4492,"kin":4493,"ker":4494,"law":4495,"pul":4496,"uce":4497,"wife":4498,"ĠTherefore":4499,"Ġtame":4500,"Ġtaught":4501,"Ġtap":4502,"Ġtide":4503,"Ġable":4504,"Ġsqu":4505,"Ġsouth":4506,"Ġmor":4507,"Ġmill":4508,"Ġmessenger":4509,"iny":4510,"reg":4511,"reland":4512,"reme":4513,"Ġbird":4514,"Ġbury":4515,"isper":4516,"Ġfig":4517,"Ġfurn":4518,"itus":4519,"Ġdig":4520,"Ġdress":4521,"Ġdaily":4522,"Ġchat":4523,"Ġcatch":4524,"Ġlark":4525,"Ġthorn":4526,"Ġthief":4527,"Ġparent":4528,"ĠIreland":4529,"ances":4530,"omans":4531,"ater":4532,"ature":4533,"atcl":4534,"Ġbef":4535,"Ġbeard":4536,"Ġbethink":4537,"Ġmeant":4538,"Ġweather":4539,"Ġwept":4540,"ades":4541,"ricians":4542,"Ġstol":4543,"Ġstamp":4544,"Ġrej":4545,"Ġrecom":4546,"Ġrevol":4547,"Ġlion":4548,"aline":4549,"Ġwilling":4550,"Ġwillingly":4551,"Ġnobl":4552,"Ġnobly":4553,"andal":4554,"Ġseason":4555,"Ġsull":4556,"Ġsuck":4557,"Ġspr":4558,"Ġspur":4559,"ĠCo":4560,"ĠCons":4561,"Ġknife":4562,"ĠRos":4563,"ĠRomans":4564,"Ġvows":4565,"Ġcomb":4566,"ĠMay":4567,"ĠMil":4568,"Ġamazed":4569,"Ġconce":4570,"Ġconceit":4571,"Ġconstant":4572,"ember":4573,"Help":4574,"Ġlovely":4575,"Ġswell":4576,"ĠST":4577,"ĠBe":4578,"ĠBer":4579,"Ġunless":4580,"Ġworn":4581,"Ġworthi":4582,"Ġjew":4583,"Ġmuster":4584,"Ġprovo":4585,"ĠPray":4586,"Ġruth":4587,"ĠAd":4588,"ĠApollo":4589,"Ġdisper":4590,"Ġabhor":4591,"Ġroar":4592,"Ġrogue":4593,"Ġtells":4594,"Ġwhereof":4595,"Ġwarlike":4596,"Ġhasty":4597,"Ġfears":4598,"Ġgreatest":4599,"oldier":4600,"Ġparticular":4601,"Ġadver":4602,"Ġcommitted":4603,"Ġclam":4604,"ĠDo":4605,"Ġperj":4606,"Ġperforce":4607,"Ġwrought":4608,"liament":4609,"Ġnorth":4610,"Ġpress":4611,"Ġrap":4612,"Ġraise":4613,"ĠFarewell":4614,"Ġbegun":4615,"forth":4616,"ĠJack":4617,"Ġconsider":4618,"Ġpeers":4619,"love":4620,"Ġwitch":4621,"Ġaccused":4622,"Ġkindly":4623,"Ġcompan":4624,"Ġsmiles":4625,"Ġcounty":4626,"Ġfinds":4627,"Stri":4628,"Ġbraw":4629,"Ġcharged":4630,"Ġpassion":4631,"Clarence":4632,"Ġholds":4633,"GREEN":4634,"Ġstreets":4635,"Ġbuild":4636,"Ġsoundly":4637,"Ġserves":4638,"Ġboots":4639,"Ġadvice":4640,"Ġcurrent":4641,"Ġrevenged":4642,"Ġassured":4643,"Ġsends":4644,"Ġgiving":4645,"Ġwinds":4646,"Ġhanged":4647,"Ġdarest":4648,"Ġintell":4649,"Ġsupposed":4650,"Ġafford":4651,"ALONS":4652,"Whither":4653,"Ġhardly":4654,"Ġprofit":4655,"Ġparliament":4656,"Ġrecord":4657,"Ġveins":4658,"Ġwaste":4659,"Ġstopp":4660,"Until":4661,"Ġpieces":4662,"Ġwait":4663,"Ġgarland":4664,"Ġgrieve":4665,"Ġsky":4666,"Ġforbear":4667,"ĠPomfret":4668,"Ġdirect":4669,"Ġgroans":4670,"Ġthrice":4671,"Ġestate":4672,"erns":4673,"TYRR":4674,"Ġoppos":4675,"Ġdestroy":4676,"About":4677,"Ġurged":4678,"Ġaffections":4679,"Ġfamous":4680,"Ġhaply":4681,"DORSET":4682,"Supp":4683,"Ġlusty":4684,"Ġelder":4685,"Ġstudy":4686,"Ġcounterfeit":4687,"Gentlemen":4688,"Ġarrived":4689,"Ġbehalf":4690,"ĠMarshal":4691,"Ġavoid":4692,"Ġimprisonment":4693,"untsman":4694,"Ġrascal":4695,"Ġtreacherous":4696,"Ġconduct":4697,"Ġprotector":4698,"Ġspecial":4699,"Ġsanctuary":4700,"Ġperpetual":4701,"Ġgrievous":4702,"AEdile":4703,"Ġvirgin":4704,"Ġjourney":4705,"DINAND":4706,"FERDINAND":4707,"atcliff":4708,"ĠConspir":4709,"ALONSO":4710,"TYRREL":4711,";--":4712,"Acc":4713,"Bring":4714,"Coriol":4715,"Keep":4716,"Leave":4717,"Makes":4718,"Vols":4719,"af":4720,"cure":4721,"des":4722,"dig":4723,"eat":4724,"erer":4725,"fess":4726,"fellow":4727,"faced":4728,"grim":4729,"groom":4730,"ib":4731,"iving":4732,"ienn":4733,"lanch":4734,"master":4735,"mory":4736,"maid":4737,"nal":4738,"sha":4739,"ser":4740,"some":4741,"ties":4742,"upt":4743,"vior":4744,"wear":4745,"xeter":4746,"zz":4747,"Ġz":4748,"Ġing":4749,"ĠThen":4750,"Ġtask":4751,"Ġach":4752,"Ġapt":4753,"Ġaunt":4754,"Ġsy":4755,"Ġsal":4756,"Ġsire":4757,"Ġmult":4758,"Ġmaintain":4759,"Ġwing":4760,"Ġwide":4761,"Ġwhip":4762,"Ġwaking":4763,"reen":4764,"Ġbade":4765,"isbury":4766,"Ġfi":4767,"Ġfood":4768,"Ġfrow":4769,"Ġfun":4770,"Ġfeet":4771,"Ġfires":4772,"Ġfancy":4773,"erity":4774,"erby":4775,"itation":4776,"onci":4777,"Ġdow":4778,"Ġdim":4779,"Ġdri":4780,"Ġdying":4781,"Ġcher":4782,"Ġcaught":4783,"Ġcere":4784,"esar":4785,"essel":4786,"enant":4787,"Ġnail":4788,"Ġlin":4789,"Ġyond":4790,"Ġyoke":4791,"Ġthird":4792,"Ġhor":4793,"Ġhie":4794,"Ġpi":4795,"Ġpot":4796,"Ġpound":4797,"Ġpurse":4798,"Ġpier":4799,"vet":4800,"ative":4801,"sell":4802,"Ġinqu":4803,"etite":4804,"eder":4805,"utenant":4806,"Ġmelt":4807,"Ġmelanch":4808,"Ġfors":4809,"Ġforced":4810,"Ġforfeit":4811,"ourse":4812,"ourth":4813,"Ġevent":4814,"adv":4815,"aded":4816,"rick":4817,"Ġsting":4818,"Ġstro":4819,"Ġstout":4820,"Ġstret":4821,"Ġstroke":4822,"Ġreck":4823,"rac":4824,"ales":4825,"alisbury":4826,"Ġsore":4827,"Ġsooth":4828,"Ġdeceit":4829,"roll":4830,"ested":4831,"earer":4832,"amb":4833,"ams":4834,"aming":4835,"Ġsees":4836,"Ġalliance":4837,"Ġsue":4838,"ruction":4839,"ellion":4840,"Ġsple":4841,"ilence":4842,"Ġknaves":4843,"Ġvessel":4844,"ulate":4845,"arts":4846,"nty":4847,"ĠExeter":4848,"icy":4849,"Ġconfe":4850,"Ġblunt":4851,"ĠGive":4852,"ares":4853,"ĠLe":4854,"Ġsaying":4855,"ĠSoldier":4856,"Ġunjust":4857,"Ġunhappy":4858,"ignty":4859,"LIS":4860,"Ġgraves":4861,"ĠWell":4862,"Ġenforce":4863,"deem":4864,"ĠAll":4865,"ĠAway":4866,"irect":4867,"harge":4868,"Ġoffended":4869,"Ġdissem":4870,"Ġdisgrace":4871,"Ġalack":4872,"Ġalike":4873,"Ġalthough":4874,"Ġabide":4875,"Ġaboard":4876,"Noble":4877,"Ġrose":4878,"Ġexchange":4879,"Soft":4880,"ages":4881,"Ġdesires":4882,"Ġdescend":4883,"Ġslaves":4884,"Ġflood":4885,"Ġflatt":4886,"Ġtwain":4887,"ĠTitus":4888,"Ġbetray":4889,"Ġbetimes":4890,"Ġnewly":4891,"Ġparting":4892,"Ġpartly":4893,"Ġcalled":4894,"Ġcommons":4895,"Ġcommission":4896,"Ġstanding":4897,"Ġclim":4898,"ĠDe":4899,"ĠDorset":4900,"ĠDerby":4901,"ullus":4902,"Ġwrink":4903,"Ġbearing":4904,"aints":4905,"Ġrare":4906,"thee":4907,"ĠFroth":4908,"Ġappeal":4909,"Ġappetite":4910,"Ġcontempt":4911,"Ġwhisper":4912,"Ġimage":4913,"ĠMarian":4914,"forced":4915,"Ġrust":4916,"Ġruled":4917,"Ġhousehold":4918,"Ġrestra":4919,"ercy":4920,"Ġsets":4921,"clam":4922,"osing":4923,"Ġresist":4924,"Ġtrick":4925,"Ġputs":4926,"Ġpowerful":4927,"Ġchase":4928,"Ġcharac":4929,"Ġsmell":4930,"Ġtreasure":4931,"Ġbrace":4932,"iety":4933,"Ġmistrust":4934,"Ġnative":4935,"Ġboys":4936,"Ġweeps":4937,"Ġpatricians":4938,"Ġbelow":4939,"Lords":4940,"Ġfalsehood":4941,"Ġsovereignty":4942,"ouchs":4943,"Ġassure":4944,"Ġsecure":4945,"Twere":4946,"Ġsometimes":4947,"Ġoaths":4948,"Ġmerit":4949,"upon":4950,"Ġfaithful":4951,"Ġdefence":4952,"Ġaffli":4953,"Ġsurely":4954,"should":4955,"Ġsilent":4956,"Ġinstruments":4957,"Cannot":4958,"Ġbeholding":4959,"Ġreconci":4960,"Ġago":4961,"Ġagree":4962,"Ġcorre":4963,"Ġsingle":4964,"Ġbreathed":4965,"Ġforgive":4966,"Ġweakness":4967,"Ġprett":4968,"Ġsickness":4969,"Ġregal":4970,"Ġregard":4971,"Ġmouths":4972,"Ġbooks":4973,"Ġbarren":4974,"Ġbeasts":4975,"Ġtrumpet":4976,"eeming":4977,"Ġpitch":4978,"Ġshield":4979,"Ġunkind":4980,"Ġtempest":4981,"Ġsuspect":4982,"Ġobedient":4983,"Ġreverence":4984,"Ġapparent":4985,"Ġentertainment":4986,"ĠAnti":4987,"Ġdetermined":4988,"Ġhelm":4989,"Ġgently":4990,"Ġholp":4991,"Ġfairest":4992,"Ġtremble":4993,"shire":4994,"Ġstabb":4995,"Ġtyranny":4996,"Ġlength":4997,"Ġpilgrim":4998,"ĠSicilia":4999,"Ġequal":5000,"Ġfashion":5001,"Ġdignity":5002,"Ġcomplex":5003,"Ġcircumst":5004,"yrrel":5005,"Ġaccording":5006,"Ġimpossible":5007,"Ġrejo":5008,"ĠRosaline":5009,"ĠMayor":5010,"ĠMilan":5011,"Volsce":5012,"ienna":5013,"Ġfroward":5014,"Ġmelancholy":5015,"Ġconference":5016,".--":5017,"AD":5018,"Cry":5019,"Cond":5020,"CLE":5021,"Down":5022,"Draw":5023,"Each":5024,"Fl":5025,"FRO":5026,"Fair":5027,"Hail":5028,"IL":5029,"IT":5030,"Im":5031,"Kn":5032,"King":5033,"Lay":5034,"Lie":5035,"Lady":5036,"Many":5037,"OMEN":5038,"PH":5039,"Qu":5040,"Ri":5041,"Sm":5042,"Son":5043,"Somet":5044,"Tush":5045,"UGH":5046,"Warwick":5047,"Ye":5048,"acc":5049,"action":5050,"bod":5051,"bation":5052,"cra":5053,"cary":5054,"cceed":5055,"eb":5056,"eve":5057,"fa":5058,"fold":5059,"foot":5060,"give":5061,"iver":5062,"iam":5063,"kind":5064,"long":5065,"look":5066,"mong":5067,"ns":5068,"nes":5069,"new":5070,"rs":5071,"rat":5072,"rough":5073,"say":5074,"sues":5075,"than":5076,"tic":5077,"teen":5078,"tles":5079,"uries":5080,"war":5081,"weal":5082,"xe":5083,"Ġtim":5084,"Ġtres":5085,"Ġtall":5086,"Ġtakes":5087,"Ġtarry":5088,"Ġtaunt":5089,"here":5090,"Ġaxe":5091,"oubt":5092,"Ġsalt":5093,"Ġsnow":5094,"Ġmir":5095,"Ġmood":5096,"Ġmess":5097,"Ġmirth":5098,"inct":5099,"Ġwid":5100,"Ġwest":5101,"Ġwake":5102,"Ġwink":5103,"hand":5104,"Ġbir":5105,"Ġbuck":5106,"ories":5107,"ering":5108,"erves":5109,"iter":5110,"itable":5111,"onation":5112,"Ġdiffe":5113,"Ġcost":5114,"Ġchall":5115,"Ġciv":5116,"Ġnap":5117,"Ġlent":5118,"Ġline":5119,"Ġlap":5120,"Ġyes":5121,"Ġthir":5122,"Ġthick":5123,"Ġthread":5124,"Ġhorn":5125,"Ġoak":5126,"Ġope":5127,"Ġtoad":5128,"Ġtoil":5129,"Ġtooth":5130,"Ġpee":5131,"Ġpause":5132,"ĠIta":5133,"othes":5134,"stable":5135,"stery":5136,"aning":5137,"omach":5138,"Ġgru":5139,"Ġgaze":5140,"Ġmystery":5141,"Ġinfection":5142,"Ġmemory":5143,"imble":5144,"illy":5145,"illing":5146,"herit":5147,"Ġste":5148,"Ġstick":5149,"Ġstumble":5150,"asp":5151,"ases":5152,"Ġrece":5153,"Ġreap":5154,"Ġredeem":5155,"Ġlift":5156,"Ġliken":5157,"alse":5158,"Ġdeb":5159,"Ġdeck":5160,"Ġdecl":5161,"Ġsham":5162,"ushy":5163,"ushes":5164,"Ġsell":5165,"Ġseiz":5166,"Ġseldom":5167,"Ġsepul":5168,"Through":5169,"Ġsuper":5170,"Ġsuitor":5171,"Ġsucceed":5172,"thing":5173,"Ġlover":5174,"Ġlovest":5175,"Ġspl":5176,"Ġspy":5177,"Ġfact":5178,"Ġfawn":5179,"Ġnegle":5180,"Ġknot":5181,"Ġvar":5182,"Ġvill":5183,"Ġvol":5184,"Ġshri":5185,"ulf":5186,"seless":5187,"artius":5188,"Ġmanif":5189,"Ġmanage":5190,"ĠMin":5191,"ical":5192,"icles":5193,"ĠLau":5194,"ĠLartius":5195,"Ġhated":5196,"LOUGH":5197,"ersu":5198,"Ġswain":5199,"Ġbran":5200,"pping":5201,"ĠSalisbury":5202,"Ġunwill":5203,"ĠHis":5204,"ĠHeaven":5205,"ĠVen":5206,"ĠVienna":5207,"Whether":5208,"Ġjot":5209,"cies":5210,"Ġshoulder":5211,"ĠPerd":5212,"ĠWIL":5213,"Ġdeaths":5214,"Ġheartily":5215,"Ġwholesome":5216,"Ġmarks":5217,"Ġoffic":5218,"Ġdisple":5219,"Ġdisgu":5220,"Ġabused":5221,"Ġexerc":5222,"Ġdescent":5223,"Ġripe":5224,"Ġride":5225,"ased":5226,"Ġleague":5227,"Ġslip":5228,"Ġwarri":5229,"ĠTar":5230,"ĠTell":5231,"ĠTyrrel":5232,"Ġbred":5233,"Ġheavenly":5234,"Ġclothes":5235,"Ġsweeter":5236,"Ġperhaps":5237,"Ġscold":5238,"Ġscandal":5239,"Ġrain":5240,"Ġrail":5241,"Ġraised":5242,"Ġappointed":5243,"Ġwhit":5244,"Ġremorse":5245,"Ġremove":5246,"Ġremoved":5247,"ĠLords":5248,"Ġbegan":5249,"Ġrepose":5250,"Ġharsh":5251,"Ġkeeper":5252,"Ġaccident":5253,"Ġaccursed":5254,"Ġyounger":5255,"Ġyoungest":5256,"Ġprick":5257,"Ġdearly":5258,"Ġsubtle":5259,"RIAN":5260,"Ġrights":5261,"fortune":5262,"Ġminds":5263,"Ġcoff":5264,"Ġdevotion":5265,"Ġmischance":5266,"Ġmeeting":5267,"Ġafternoon":5268,"Ġcareless":5269,"Uncle":5270,"Ġgriefs":5271,"Anon":5272,"Ġhuman":5273,"Ġcounc":5274,"Ġgrat":5275,"Ġretire":5276,"Ġserved":5277,"Ġadventure":5278,"Ġcurt":5279,"Ġcountrymen":5280,"Ġvirtues":5281,"Ġwindows":5282,"itten":5283,"Ġcraves":5284,"Ġcraft":5285,"Ġbeauteous":5286,"Ġstranger":5287,"Ġyielded":5288,"Ġsupply":5289,"Ġcommonweal":5290,"Ġmonstrous":5291,"Ġmonument":5292,"Didst":5293,"soever":5294,"Ġgrowing":5295,"Ġheirs":5296,"Ġvisage":5297,"Ġpoints":5298,"Ġstronger":5299,"Ġtrusty":5300,"Ġinstruction":5301,"Ġinfant":5302,"Ġforeign":5303,"Ġincen":5304,"Ġfeeling":5305,"Ġburst":5306,"Ġplainly":5307,"Ġabsolute":5308,"Ġfourteen":5309,"Ġselfsame":5310,"Ġfrowns":5311,"Ġdirection":5312,"Ġredress":5313,"Ġsatisfy":5314,"Ġservants":5315,"ollow":5316,"Ġblem":5317,"Ġbridegroom":5318,"Ġbabes":5319,"Ġgallant":5320,"Ġrebellion":5321,"Ġwriting":5322,"Ġfierce":5323,"Ġshadows":5324,"Ġpleasing":5325,"Ġmodest":5326,"Ġmodesty":5327,"Ġobject":5328,"Ġforswear":5329,"Ġuncles":5330,"Ġrefuse":5331,"Among":5332,"banished":5333,"Ġbigger":5334,"Ġfeather":5335,"Ġdetermine":5336,"Betw":5337,"Better":5338,"Ġchaste":5339,"otted":5340,"Ġfairer":5341,"Ġshrewd":5342,"Ġdismal":5343,"Ġtrembling":5344,"Ġacquaint":5345,"Ġprophet":5346,"Ġedge":5347,"Ġeagle":5348,"Ġshroud":5349,"Ġsubstit":5350,"othecary":5351,"Ġsteeds":5352,"Ġiron":5353,"Ġtorture":5354,"Ġrenowned":5355,"Ġdearest":5356,"Return":5357,"Remember":5358,"Ġwondrous":5359,"Ġballad":5360,"Ġpenitent":5361,"Ġpolicy":5362,"Ġrepeal":5363,"Ġadversaries":5364,"Ġpurchase":5365,"Commend":5366,"Ġprivilege":5367,"Ġrevolt":5368,"Ġsullen":5369,"Ġconceal":5370,"ĠConspirator":5371,"Coriolanus":5372,"Ġdowry":5373,"Ġpierce":5374,"Ġstrokes":5375,"Ġflatterer":5376,"ĠMariana":5377,"ouchsafe":5378,"ADRIAN":5379,"CLEOMEN":5380,"FROTH":5381,"Ġtrespass":5382,"Ġcivil":5383,"Ġthirty":5384,"ĠItaly":5385,"Ġsepulch":5386,"LOUGHBY":5387,"ĠPerdita":5388,"ĠWILLOUGHBY":5389,"Ġexercise":5390,"CLEOMENES":5391,"AM":5392,"Aw":5393,"BAR":5394,"Courage":5395,"Dare":5396,"Find":5397,"Get":5398,"Men":5399,"Mist":5400,"Making":5401,"Methought":5402,"NARD":5403,"Oh":5404,"Pur":5405,"Petruchio":5406,"Que":5407,"Rather":5408,"RUT":5409,"Se":5410,"Sound":5411,"Tranio":5412,"UR":5413,"Villain":5414,"Wit":5415,"ax":5416,"br":5417,"bble":5418,"boy":5419,"car":5420,"cest":5421,"cue":5422,"cence":5423,"done":5424,"ders":5425,"duke":5426,"ext":5427,"from":5428,"gy":5429,"got":5430,"ghan":5431,"great":5432,"gentle":5433,"iar":5434,"ips":5435,"mas":5436,"made":5437,"nken":5438,"nicious":5439,"oon":5440,"oes":5441,"off":5442,"phy":5443,"pret":5444,"pardon":5445,"rity":5446,"ratch":5447,"sire":5448,"scal":5449,"tend":5450,"ug":5451,"vive":5452,"vied":5453,"ĠAs":5454,"Ġtou":5455,"Ġtro":5456,"Ġtig":5457,"Ġtail":5458,"Ġale":5459,"Ġages":5460,"Ġsn":5461,"Ġmain":5462,"Ġmil":5463,"Ġmethought":5464,"inate":5465,"Ġward":5466,"Ġwakes":5467,"Ġbon":5468,"Ġbore":5469,"Ġbag":5470,"Ġbrown":5471,"Ġborrow":5472,"Ġbott":5473,"ision":5474,"orough":5475,"Ġfish":5476,"Ġfret":5477,"Ġfix":5478,"Ġfreed":5479,"ital":5480,"itiff":5481,"onest":5482,"Ġdate":5483,"Ġdower":5484,"Ġcrow":5485,"esu":5486,"enge":5487,"Ġnet":5488,"Ġnest":5489,"Ġnice":5490,"Ġnumb":5491,"Ġnupt":5492,"Ġlur":5493,"Ġlance":5494,"Ġlower":5495,"Ġluck":5496,"Ġyon":5497,"Ġthin":5498,"Ġthie":5499,"Ġthirst":5500,"Ġthumb":5501,"Ġhom":5502,"Ġhind":5503,"Ġhig":5504,"Ġhire":5505,"Ġhoney":5506,"Ġtoy":5507,"Ġtomorrow":5508,"Ġped":5509,"Ġpear":5510,"Ġpath":5511,"Ġpage":5512,"hath":5513,"ĠIt":5514,"Ġheat":5515,"Ġheels":5516,"owl":5517,"ingers":5518,"Ġgid":5519,"atri":5520,"atest":5521,"Ġbere":5522,"Ġbefall":5523,"sey":5524,"Ġink":5525,"cels":5526,"Ġhare":5527,"Ġhaught":5528,"Ġhabit":5529,"ayed":5530,"Ġnoted":5531,"chief":5532,"keley":5533,"Ġweal":5534,"Ġwealth":5535,"oops":5536,"hern":5537,"Ġwithdraw":5538,"rif":5539,"rich":5540,"rible":5541,"Ġstale":5542,"Ġstern":5543,"Ġstomach":5544,"order":5545,"INE":5546,"rage":5547,"Ġlivery":5548,"Ġliking":5549,"urg":5550,"urrey":5551,"Ġdeaf":5552,"Ġshare":5553,"Ġshapes":5554,"Ġdove":5555,"Ġdogs":5556,"Ġdozen":5557,"Ġwills":5558,"ushing":5559,"Ġsuits":5560,"Ġhers":5561,"Ġanointed":5562,"ardel":5563,"Ġspit":5564,"Ġspect":5565,"Ġshallow":5566,"ĠCounty":5567,"Ġneat":5568,"Ġvent":5569,"Ġshook":5570,"Ġshines":5571,"Ġupright":5572,"Ġgoods":5573,"Ġprime":5574,"Ġamiss":5575,"icate":5576,"icio":5577,"Ġconceive":5578,"iege":5579,"Ġblast":5580,"ĠGree":5581,"emper":5582,"Ġgodd":5583,"aughan":5584,"Ġsirs":5585,"ola":5586,"olved":5587,"ĠLicio":5588,"Ġthereby":5589,"ept":5590,"eping":5591,"Ġswore":5592,"Ġsweat":5593,"Ġorn":5594,"ĠSc":5595,"ĠSp":5596,"ĠSee":5597,"ĠShore":5598,"ĠOff":5599,"ĠBr":5600,"ĠBy":5601,"Ġarrest":5602,"Ġlets":5603,"Ġunst":5604,"Ġunse":5605,"Ġunfe":5606,"Ġworm":5607,"ĠVal":5608,"aker":5609,"Ġhop":5610,"Ġlikely":5611,"Ġproclam":5612,"ĠPlease":5613,"ĠPETER":5614,"Ġsav":5615,"Ġmadness":5616,"umbling":5617,"Ġplaces":5618,"iced":5619,"ĠWilt":5620,"Ġeng":5621,"unate":5622,"Ġrans":5623,"Ġtrunk":5624,"Ġsomewhat":5625,"harged":5626,"orney":5627,"Ġoffices":5628,"Ġdisgra":5629,"Ġalms":5630,"Ġabuse":5631,"Ġexam":5632,"Ġtelling":5633,"Ġlooked":5634,"Ġthinking":5635,"Ġwhereon":5636,"agues":5637,"Whereto":5638,"Ġflow":5639,"Ġflint":5640,"Ġflourish":5641,"Ġfearing":5642,"bert":5643,"Ġbreed":5644,"Ġgreatness":5645,"Ġparted":5646,"Ġpernicious":5647,"Ġtroop":5648,"Ġtroops":5649,"lied":5650,"Ġscatter":5651,"ainty":5652,"ables":5653,"ĠFare":5654,"Ġappea":5655,"Ġgraced":5656,"Ġbegu":5657,"Ġbeget":5658,"rank":5659,"Ġchildish":5660,"Ġreply":5661,"Ġconsort":5662,"loves":5663,"ercing":5664,"cheth":5665,"Ġtrif":5666,"ontes":5667,"Ġprice":5668,"Ġsubd":5669,"Ġbacks":5670,"twill":5671,"Ġforthwith":5672,"Ġbank":5673,"Ġcheap":5674,"Ġcharm":5675,"Ġlaws":5676,"Ġconfirm":5677,"Ġcoll":5678,"Ġlightning":5679,"Does":5680,"Ġroyalty":5681,"ĠAnne":5682,"Ġbesides":5683,"Ġhappily":5684,"Ġsorrows":5685,"Ġcareful":5686,"Ġlesser":5687,"Ġstrive":5688,"Ġsleeping":5689,"Ġdrag":5690,"Ġserp":5691,"Ġboast":5692,"pense":5693,"Ġwanting":5694,"Ġbreathing":5695,"Ġdiscourse":5696,"Ġsenseless":5697,"Ġbeaut":5698,"Ġhangs":5699,"Ġdepend":5700,"hamed":5701,"Ġgrew":5702,"Ġspoil":5703,"Ġdrunken":5704,"Ġaffords":5705,"Ġmetal":5706,"Ġsooner":5707,"IDAM":5708,"Ġsights":5709,"Ġmonster":5710,"Ġmonarch":5711,"acles":5712,"Ġsadness":5713,"Ġsuffic":5714,"Ġcarried":5715,"Ġexecute":5716,"Ġexecuted":5717,"Ġminute":5718,"Ġvel":5719,"Ġcoronation":5720,"Ġpraises":5721,"Ġwaves":5722,"Ġburnt":5723,"Ġliberal":5724,"Ġburns":5725,"Ġburning":5726,"Ġproport":5727,"Ġblessing":5728,"Ġbleeding":5729,"Ġestim":5730,"Ġbitterly":5731,"mbles":5732,"speak":5733,"Ġlimit":5734,"Ġlimbs":5735,"Ġsacrif":5736,"Ġsuccession":5737,"Ġactions":5738,"Ġcaps":5739,"Ġviolence":5740,"Ġtriumphant":5741,"Ġmidnight":5742,"Ġrebels":5743,"Ġpossession":5744,"Play":5745,"Ġtorch":5746,"Ġcaitiff":5747,"Ġpitiful":5748,"Ġinjury":5749,"Ġurge":5750,"Ġexecutioner":5751,"March":5752,"Marcius":5753,"Ġmeddle":5754,"Ġoccup":5755,"Ġnobility":5756,"Ġchurchyard":5757,"Ġignorance":5758,"Ġsaints":5759,"headed":5760,"ĠCaesar":5761,"Ġrank":5762,"Ġguests":5763,"ĠWilliam":5764,"Ġhungry":5765,"Ġunfold":5766,"Ġmonths":5767,"Ġextremity":5768,"Ġinclined":5769,"Ġcovert":5770,"Ġjoints":5771,"Ġprevented":5772,"Ġtyrann":5773,"Ġlengthen":5774,"Ġwager":5775,"Ġnecessity":5776,"Ġsubstance":5777,"Ġescape":5778,"Ġsenses":5779,"Ġstatue":5780,"Ġconjure":5781,"Ġbands":5782,"Ġweapon":5783,"Ġsteps":5784,"Ġangel":5785,"Ġtransport":5786,"Ġthreatening":5787,"Ġwolf":5788,"Ġcensure":5789,"ribunes":5790,"ARCHIDAM":5791,"ĠDido":5792,"ĠElbow":5793,"Ġapprehend":5794,"Ġimmortal":5795,"Ġtapster":5796,"Ġmoral":5797,"ĠBerkeley":5798,"Ġjewel":5799,"Ġruthless":5800,"Ġdispersed":5801,"Ġclamour":5802,"Ġrapier":5803,"Ġcompanion":5804,"Strike":5805,"Ġopposite":5806,"Ġzeal":5807,"Ġcherish":5808,"Ġstretch":5809,"ambio":5810,"Ġspleen":5811,"Ġcharacter":5812,"Ġprettiest":5813,"Ġrejoice":5814,"Ġbirds":5815,"Ġchallenge":5816,"Ġpeevish":5817,"Ġlikeness":5818,"ĠLaurence":5819,"Ġofficers":5820,"Ġwarriors":5821,"Ġcommonwealth":5822,"Ġsepulchre":5823,"BARNARD":5824,"Queen":5825,"RUTLAND":5826,"scalus":5827,"Ġbottom":5828,"Ġnuptial":5829,"Ġgiddy":5830,"ĠOfficer":5831,"ĠWiltshire":5832,"ARCHIDAMUS":5833,"BARNARDINE":5834,"ATER":5835,"Add":5836,"Bre":5837,"Bra":5838,"BAN":5839,"CRO":5840,"Content":5841,"Ever":5842,"Eng":5843,"Else":5844,"EPH":5845,"Full":5846,"False":5847,"Follow":5848,"GO":5849,"Ga":5850,"Gard":5851,"Gentleman":5852,"Hic":5853,"Henry":5854,"Hortensio":5855,"Lu":5856,"Live":5857,"Mis":5858,"MOR":5859,"Much":5860,"Name":5861,"Old":5862,"Patience":5863,"Persu":5864,"Saw":5865,"Six":5866,"SIR":5867,"TON":5868,"Toward":5869,"TMOR":5870,"Virt":5871,"Wr":5872,"WES":5873,"Woe":5874,"Women":5875,"WATER":5876,"Yield":5877,"ZWATER":5878,"ald":5879,"aven":5880,"back":5881,"cor":5882,"cus":5883,"call":5884,"cap":5885,"cont":5886,"cons":5887,"ded":5888,"dal":5889,"fri":5890,"gged":5891,"horse":5892,"iban":5893,"light":5894,"may":5895,"nant":5896,"pray":5897,"ront":5898,"sen":5899,"vided":5900,"wd":5901,"wing":5902,"water":5903,"zed":5904,"Ġice":5905,"Ġought":5906,"ĠThy":5907,"Ġeter":5908,"ĠQueen":5909,"Ġtard":5910,"Ġtack":5911,"Ġtree":5912,"Ġtied":5913,"Ġtired":5914,"Ġtakest":5915,"Ġah":5916,"Ġaud":5917,"Ġaged":5918,"oured":5919,"Ġsed":5920,"Ġsess":5921,"Ġsau":5922,"Ġsings":5923,"Ġsought":5924,"Ġsides":5925,"Ġsurp":5926,"Ġsilly":5927,"Ġmat":5928,"Ġmour":5929,"Ġmould":5930,"iners":5931,"Ġwet":5932,"Ġwave":5933,"Ġwaked":5934,"reet":5935,"reant":5936,"habit":5937,"Ġbay":5938,"Ġbill":5939,"Ġbent":5940,"Ġbru":5941,"Ġbol":5942,"Ġbalm":5943,"ishes":5944,"isement":5945,"orth":5946,"oriz":5947,"Ġfin":5948,"Ġfant":5949,"Ġfray":5950,"Ġfever":5951,"Ġfelt":5952,"Ġfardel":5953,"erily":5954,"itch":5955,"oned":5956,"onus":5957,"onstant":5958,"Ġcat":5959,"Ġcent":5960,"Ġcook":5961,"envol":5962,"Ġnar":5963,"Ġlour":5964,"Ġlun":5965,"arm":5966,"Ġomit":5967,"Ġtops":5968,"Ġpor":5969,"Ġpill":5970,"Ġpent":5971,"Ġphi":5972,"Ġpick":5973,"Ġpace":5974,"Ġpaint":5975,"Ġpaid":5976,"Ġpush":5977,"Ġpalm":5978,"Ġpomp":5979,"ĠIn":5980,"Ġhera":5981,"Ġheight":5982,"omes":5983,"Ġgn":5984,"Ġgap":5985,"Ġgains":5986,"Ġgoose":5987,"athe":5988,"athed":5989,"Ġbeams":5990,"sec":5991,"seem":5992,"Ġinv":5993,"Ġhail":5994,"iring":5995,"ednes":5996,"uts":5997,"utch":5998,"Ġmew":5999,"Ġmemb":6000,"Ġissu":6001,"Ġforty":6002,"Ġweek":6003,"ently":6004,"riel":6005,"Ġstead":6006,"Ġhist":6007,"Ġrend":6008,"Ġrear":6009,"Ġreach":6010,"Ġrevel":6011,"raid":6012,"Ġlions":6013,"Ġlikes":6014,"Ġlivest":6015,"urgh":6016,"urtis":6017,"alter":6018,"Ġsoil":6019,"Ġsoci":6020,"Ġaspect":6021,"Ġashamed":6022,"Ġdem":6023,"Ġdepose":6024,"rog":6025,"ARLIS":6026,"hire":6027,"verty":6028,"Ġbutt":6029,"Ġsevere":6030,"Ġseated":6031,"Thine":6032,"Things":6033,"Ġalleg":6034,"Ġherd":6035,"three":6036,"Ġanch":6037,"tering":6038,"Ġload":6039,"Ġlock":6040,"Ġlovers":6041,"ellows":6042,"Ġspread":6043,"Ġourself":6044,"Ġfavours":6045,"ilful":6046,"iliar":6047,"ĠCurtis":6048,"ĠCARLIS":6049,"ĠRatcliff":6050,"ĠRaven":6051,"Ġvast":6052,"ORGE":6053,"Ġshru":6054,"Ġshrift":6055,"arted":6056,"ĠMistress":6057,"ĠEm":6058,"ĠEly":6059,"ĠELY":6060,"ĠEscalus":6061,"Ġamain":6062,"Ġamends":6063,"Ġambit":6064,"Ġamorous":6065,"Ġconsequ":6066,"iece":6067,"ĠGreen":6068,"Ġshel":6069,"Ġgoss":6070,"arers":6071,"olks":6072,"ĠLook":6073,"Ġknowing":6074,"resh":6075,"Ġswears":6076,"Ġbrat":6077,"ĠShall":6078,"ĠSurrey":6079,"ĠSCRO":6080,"ĠOur":6081,"ĠBushy":6082,"ĠBurg":6083,"Ġarray":6084,"Ġune":6085,"Ġunm":6086,"Ġunre":6087,"igent":6088,"igonus":6089,"ĠHim":6090,"ĠHark":6091,"ĠHuntsman":6092,"ĠVaughan":6093,"elsh":6094,"eliver":6095,"LIBAN":6096,"Ġgrain":6097,"Ġhoar":6098,"Ġlikewise":6099,"Ġproved":6100,"Ġprocess":6101,"Ġprodig":6102,"umed":6103,"ĠWas":6104,"ĠWould":6105,"ĠWelsh":6106,"isting":6107,"Ġenc":6108,"uns":6109,"Ġrate":6110,"Ġrouse":6111,"Ġpoverty":6112,"Ġspeaking":6113,"Ġoutrage":6114,"ELAND":6115,"ickle":6116,"CALIBAN":6117,"Withdraw":6118,"igned":6119,"Ġmars":6120,"Ġmarvel":6121,"Ġmarvell":6122,"Ġdisin":6123,"Ġdisease":6124,"Ġabund":6125,"Ġrobb":6126,"Ġexcept":6127,"agot":6128,"aged":6129,"Ġdesc":6130,"Ġriches":6131,"Whereof":6132,"Ġslight":6133,"Ġslipp":6134,"Ġflat":6135,"Ġbetide":6136,"Ġbread":6137,"Behold":6138,"Ġcouple":6139,"Ġparties":6140,"Ġpartner":6141,"idered":6142,"Ġclock":6143,"Ġprefer":6144,"Ġsweetly":6145,"ĠDian":6146,"ulls":6147,"Ġwritten":6148,"Ġscratch":6149,"Ġpresume":6150,"Ġpreserve":6151,"Ġnights":6152,"Ġworldly":6153,"perience":6154,"Ġrack":6155,"Ġraven":6156,"them":6157,"ably":6158,"ĠFIT":6159,"Ġdownright":6160,"Ġcontro":6161,"BAGO":6162,"ranch":6163,"Ġimper":6164,"Ġreputation":6165,"Ġafraid":6166,"Ġmightst":6167,"Ġstays":6168,"Ġrue":6169,"Ġleg":6170,"Ġlect":6171,"Ġlewd":6172,"loso":6173,"Ġrestore":6174,"Ġentrance":6175,"Ġtricks":6176,"Ġmoves":6177,"Ġbestow":6178,"Ġaccom":6179,"Ġended":6180,"Ġpurge":6181,"Ġpurple":6182,"Ġputting":6183,"Prove":6184,"Proceed":6185,"Proclaim":6186,"Ġsmil":6187,"Ġsmother":6188,"Ġtrain":6189,"Ġtravell":6190,"Ġbidding":6191,"Ġdrew":6192,"Ġearthly":6193,"Ġcouldst":6194,"Ġtren":6195,"Ġhopeful":6196,"GEORGE":6197,"Ġbrains":6198,"Ġcheque":6199,"Ġbridal":6200,"Ġconfound":6201,"being":6202,"Ġcop":6203,"Ġcoat":6204,"Ġmisfortune":6205,"Ġlanded":6206,"blood":6207,"Ġfalcon":6208,"Ġfalls":6209,"Ġbusy":6210,"Another":6211,"Ġstrict":6212,"Ġcounsell":6213,"Ġcourtier":6214,"Ġcourteous":6215,"Ġbuzz":6216,"Ġattain":6217,"Ġattorney":6218,"erest":6219,"Ġsounds":6220,"Ġsounded":6221,"Ġretired":6222,"Ġadvised":6223,"Ġrevenges":6224,"Ġstraw":6225,"Although":6226,"Ġprompt":6227,"Ġcram":6228,"Ġcontents":6229,"Ġvillains":6230,"Ġinteg":6231,"Ġkisses":6232,"aptain":6233,"Ġyields":6234,"upid":6235,"Ġwinters":6236,"Ġlambs":6237,"Ġbeats":6238,"Ġbeaten":6239,"acy":6240,"undy":6241,"unday":6242,"ventry":6243,"Ġchosen":6244,"Hadst":6245,"Ġentreaties":6246,"Ġdevilish":6247,"Ġboldly":6248,"Ġwooing":6249,"Ġinfer":6250,"Becomes":6251,"guard":6252,"Ġreadiness":6253,"Ġprofane":6254,"Ġdivor":6255,"Ġyouthful":6256,"Comes":6257,"Comfort":6258,"Ġterm":6259,"Ġsuitors":6260,"Ġstops":6261,"Ġcloudy":6262,"Ġmusicians":6263,"Ġdroop":6264,"Ġwax":6265,"Ġgrieves":6266,"Ġgrieved":6267,"chers":6268,"Ġskill":6269,"Ġsignal":6270,"Ġsignify":6271,"Ġcheerly":6272,"Ġprophes":6273,"Ġextreme":6274,"Ġtroubl":6275,"Ġsatisfaction":6276,"Ġdarkness":6277,"Ġexped":6278,"Ġflattering":6279,"Ġembra":6280,"Ġesteem":6281,"Ġbowels":6282,"Ġfrail":6283,"Ġhurl":6284,"Ġtowns":6285,"Ġsuddenly":6286,"spurgh":6287,"Ġcowardly":6288,"Ġlamentable":6289,"Ġowes":6290,"Ġeaten":6291,"Ġkinsmen":6292,"Ġmiddle":6293,"Ġdestruction":6294,"Ġdeparture":6295,"Plantagenet":6296,"Whiles":6297,"Ġfondly":6298,"Ġusurping":6299,"Above":6300,"ossess":6301,"Ġmildness":6302,"Ġinsol":6303,"Ġgladly":6304,"mediate":6305,"Ġapace":6306,"Ġships":6307,"Ġshop":6308,"Ġshoes":6309,"Ġobsequ":6310,"Ġtreasons":6311,"Ġcondemned":6312,"Ġtroubled":6313,"Ġlists":6314,"Ġstorms":6315,"Ġtemples":6316,"Ġmutinous":6317,"Ġpetty":6318,"Ġconquest":6319,"Ġgrandam":6320,"Ġgrandsire":6321,"Ġeldest":6322,"ĠAntigonus":6323,"Disp":6324,"EXTON":6325,"Ġbastards":6326,"Ġhelps":6327,"Ġamongst":6328,"Ġprovide":6329,"Ġgreeting":6330,"Ġministers":6331,"Neither":6332,"where":6333,"Ġconclud":6334,"Ġconclude":6335,"Ġdismiss":6336,"Officer":6337,"Ġimagine":6338,"Ġacquainted":6339,"Ġgifts":6340,"Ġghostly":6341,"Ġbehavior":6342,"Ġeleven":6343,"Ġrobes":6344,"Ġdesigns":6345,"Ġtempted":6346,"Ġheavier":6347,"Perhaps":6348,"Ġerrand":6349,"Ġwandering":6350,"Ġdetest":6351,"Ġweapons":6352,"Ġvanity":6353,"Ġaccusation":6354,"Shalt":6355,"Ġfrost":6356,"Ġpersuade":6357,"Ġdiscontented":6358,"Appear":6359,"Ġtestim":6360,"Ġhazard":6361,"ĠCaliban":6362,"ĠBlunt":6363,"Ġkeys":6364,"Ġinstantly":6365,"iveness":6366,"Ġfigure":6367,"Ġfurnish":6368,"Ġparents":6369,"Ġrecompense":6370,"Ġnobleness":6371,"ĠCoventry":6372,"ĠSTEPH":6373,"Ġprovoked":6374,"Ġintelligence":6375,"Ġfiend":6376,"Ġceremon":6377,"advised":6378,"Ġreckon":6379,"ĠLeontes":6380,"Ġreconcile":6381,"Ġunkindness":6382,"Ġpilgrimage":6383,"Ġcomplexion":6384,"Ġseized":6385,"Ġneglect":6386,"Ġvarlet":6387,"ĠMinola":6388,"ĠVenice":6389,"Ġblemish":6390,"Ġfreedom":6391,"Ġthieves":6392,"Ġgoddess":6393,"Ġproclamation":6394,"Ġsavage":6395,"Ġransom":6396,"Ġexample":6397,"Ġvelvet":6398,"Ġproportion":6399,"Ġtyrannous":6400,"Gaoler":6401,"Gardener":6402,"Lucentio":6403,"Towards":6404,"TMORELAND":6405,"WESTMORELAND":6406,"envolio":6407,"Ġnarrow":6408,"Ġphiloso":6409,"Ġherald":6410,"ednesday":6411,"Ġmembers":6412,"Ġallegiance":6413,"ĠCARLISLE":6414,"ĠRavenspurgh":6415,"Ġambitious":6416,"ĠSCROOP":6417,"ĠBurgundy":6418,"ĠFITZWATER":6419,"BAGOT":6420,"Ġintegrity":6421,"ĠSTEPHEN":6422,"Ġphilosophy":6423,"Ac":6424,"Af":6425,"Bound":6426,"Ca":6427,"Cont":6428,"Camillo":6429,"Catesby":6430,"Dep":6431,"Div":6432,"Fore":6433,"Five":6434,"Fall":6435,"Foul":6436,"Fetch":6437,"Gra":6438,"Gives":6439,"Grace":6440,"Hie":6441,"Harry":6442,"Hang":6443,"Justice":6444,"Kind":6445,"Lies":6446,"Lead":6447,"Mur":6448,"Part":6449,"Peter":6450,"Rel":6451,"Sit":6452,"Send":6453,"Ten":6454,"Tra":6455,"Talk":6456,"Touch":6457,"Teach":6458,"Truly":6459,"Vouchsafe":6460,"Verily":6461,"Wert":6462,"Zounds":6463,"av":6464,"ape":6465,"aving":6466,"bes":6467,"bour":6468,"bell":6469,"board":6470,"cat":6471,"cock":6472,"down":6473,"ech":6474,"eves":6475,"gic":6476,"gues":6477,"hors":6478,"ipt":6479,"join":6480,"kest":6481,"know":6482,"lor":6483,"len":6484,"low":6485,"lain":6486,"last":6487,"lace":6488,"lock":6489,"liness":6490,"longs":6491,"met":6492,"miss":6493,"mistress":6494,"nib":6495,"ob":6496,"oble":6497,"open":6498,"post":6499,"pite":6500,"pular":6501,"pothecary":6502,"ris":6503,"rish":6504,"roof":6505,"sent":6506,"tin":6507,"ted":6508,"tell":6509,"tong":6510,"tied":6511,"trees":6512,"uge":6513,"uild":6514,"ually":6515,"vir":6516,"wh":6517,"wer":6518,"was":6519,"work":6520,"women":6521,"ycor":6522,"ĠFirst":6523,"Ġtrow":6524,"Ġtie":6525,"Ġtorn":6526,"Ġtaking":6527,"heard":6528,"Ġafe":6529,"Ġsow":6530,"Ġsand":6531,"Ġsong":6532,"Ġsixt":6533,"Ġmom":6534,"Ġmas":6535,"Ġmouse":6536,"Ġmates":6537,"Ġmurde":6538,"Ġmask":6539,"inu":6540,"inal":6541,"inies":6542,"inces":6543,"Ġwore":6544,"Ġwipe":6545,"had":6546,"hage":6547,"Ġbot":6548,"Ġbul":6549,"Ġbows":6550,"Ġbail":6551,"Ġbounty":6552,"Ġfre":6553,"Ġfan":6554,"Ġfif":6555,"Ġfil":6556,"Ġfrant":6557,"Ġfount":6558,"Ġfift":6559,"Ġfingers":6560,"Ġfrank":6561,"Ġfolks":6562,"onio":6563,"Ġdot":6564,"Ġdine":6565,"Ġdried":6566,"Ġdined":6567,"Ġdash":6568,"Ġdiest":6569,"Ġdrift":6570,"Ġcord":6571,"Ġcro":6572,"Ġcab":6573,"Ġcool":6574,"Ġcrows":6575,"Ġcords":6576,"ening":6577,"ened":6578,"enches":6579,"Ġnort":6580,"Ġnigh":6581,"Ġnamed":6582,"Ġnimble":6583,"Ġlute":6584,"Ġlads":6585,"Ġlying":6586,"Ġlinger":6587,"Ġthw":6588,"Ġthrown":6589,"Ġhill":6590,"Ġpow":6591,"Ġpour":6592,"Ġpest":6593,"Ġpant":6594,"Ġpup":6595,"Ġpict":6596,"Ġheel":6597,"Ġheinous":6598,"otland":6599,"Ġgust":6600,"Ġgather":6601,"Ġgaunt":6602,"Ġbeef":6603,"see":6604,"Ġinward":6605,"Ġhag":6606,"Ġhaunt":6607,"lect":6608,"aying":6609,"etition":6610,"Ġmeed":6611,"Ġmeal":6612,"iments":6613,"Ġnotice":6614,"Ġforso":6615,"Ġug":6616,"Ġwears":6617,"Ġeight":6618,"Ġeff":6619,"advent":6620,"ril":6621,"rial":6622,"Ġstink":6623,"Ġstag":6624,"Ġsteep":6625,"Ġstiff":6626,"Ġkites":6627,"iders":6628,"asant":6629,"Ġrein":6630,"Ġrevive":6631,"rament":6632,"Ġlick":6633,"Ġlief":6634,"urb":6635,"uring":6636,"alks":6637,"Ġashes":6638,"Ġassem":6639,"Ġdeer":6640,"Ġdece":6641,"Ġdeform":6642,"roach":6643,"Ġshade":6644,"Ġdole":6645,"amy":6646,"amity":6647,"aments":6648,"Ġnod":6649,"Ġnoon":6650,"ushi":6651,"anders":6652,"Ġsearch":6653,"Throw":6654,"Ġann":6655,"Ġancest":6656,"Ġlodge":6657,"Ġloathed":6658,"ella":6659,"Ġspark":6660,"Ġspider":6661,"Ġspurs":6662,"ĠCambio":6663,"ĠCupid":6664,"Ġvul":6665,"Ġvass":6666,"Ġvouch":6667,"Ġvial":6668,"Ġventure":6669,"ctor":6670,"ousins":6671,"Ġwhatsoever":6672,"Ġshot":6673,"Ġshown":6674,"ules":6675,"arthage":6676,"Ġprate":6677,"Ġprint":6678,"Ġprating":6679,"Ġmanhood":6680,"ĠEven":6681,"Ġamaz":6682,"icle":6683,"ication":6684,"ived":6685,"ively":6686,"Ġblot":6687,"Ġblue":6688,"Ġblown":6689,"Ġbliss":6690,"Ġblaze":6691,"Ġblushing":6692,"embroke":6693,"Ġtheme":6694,"ĠLove":6695,"Ġthereto":6696,"Ġcanop":6697,"eptune":6698,"Ġherein":6699,"Ġswoon":6700,"Ġbranch":6701,"Ġorator":6702,"ĠSly":6703,"ĠSunday":6704,"ĠSycor":6705,"ĠBagot":6706,"ĠBenvolio":6707,"Ġarise":6708,"Ġunlike":6709,"Ġunruly":6710,"Ġworms":6711,"Ġworser":6712,"ĠHave":6713,"Ġmustard":6714,"Ġgraces":6715,"Ġseeks":6716,"Ġlikeli":6717,"Ġshoulders":6718,"ĠPoor":6719,"Ġsack":6720,"Ġsaved":6721,"Ġplan":6722,"peian":6723,"ĠWest":6724,"ĠWednesday":6725,"Ġenforced":6726,"Ġenrich":6727,"unis":6728,"uned":6729,"fulness":6730,"Ġrhe":6731,"Ġranc":6732,"Ġrush":6733,"Ġroof":6734,"Ġrushes":6735,"Ġpock":6736,"Ġpopular":6737,"death":6738,"ption":6739,"Ġoffences":6740,"Ġdiso":6741,"Ġalar":6742,"Ġaloud":6743,"Ġalso":6744,"ABRA":6745,"Ġbrotherhood":6746,"Ġfox":6747,"Ġroses":6748,"Ġroaring":6749,"Ġexceed":6750,"Ġrig":6751,"Ġleap":6752,"Ġleaving":6753,"Ġslily":6754,"Ġflock":6755,"ĠTime":6756,"ĠTew":6757,"ĠTroy":6758,"ĠTullus":6759,"ĠTribunes":6760,"ffic":6761,"ĠKent":6762,"Ġcommends":6763,"Ġcler":6764,"Ġsweetest":6765,"Ġplebe":6766,"Ġperfection":6767,"Ġwring":6768,"awful":6769,"Ġtrim":6770,"Ġotherwise":6771,"Ġmeaner":6772,"lier":6773,"Ġscore":6774,"Ġnighting":6775,"Ġrace":6776,"Thank":6777,"these":6778,"ĠFourth":6779,"Ġdownfall":6780,"together":6781,"Ġappears":6782,"Ġcontri":6783,"GREY":6784,"Ġwhist":6785,"Northumberland":6786,"Ġmothers":6787,"Ġeverlast":6788,"ksbury":6789,"ĠJup":6790,"Ġrum":6791,"Ġpeer":6792,"Ġlevel":6793,"Ġharl":6794,"Ġharvest":6795,"Ġharbour":6796,"Ġrests":6797,"Ġsettled":6798,"attern":6799,"oses":6800,"Ġmoe":6801,"Ġmoving":6802,"Ġmoiety":6803,"Ġbestri":6804,"Ġhenceforth":6805,"Ġaccomp":6806,"Ġfaced":6807,"ulting":6808,"Ġendured":6809,"Ġpursue":6810,"Ġcompare":6811,"Ġcompound":6812,"Ġchamp":6813,"Ġdearth":6814,"twould":6815,"Ġtrees":6816,"Ġhomely":6817,"Ġbrand":6818,"isterous":6819,"Ġcharges":6820,"Ġchances":6821,"Ġchanging":6822,"Ġconfidence":6823,"Ġconfeder":6824,"Ġcoast":6825,"Ġcozen":6826,"Ġimpeach":6827,"Ġlights":6828,"Ġroyalties":6829,"Ġbeside":6830,"Ġfully":6831,"Ġdevour":6832,"Ġwronged":6833,"Ġmischief":6834,"Ġlasting":6835,"blance":6836,"Ġafterward":6837,"Ġthousands":6838,"Ġholding":6839,"Ġpatron":6840,"Ġfallen":6841,"Ġfalling":6842,"Ġstrife":6843,"ivant":6844,"Ġhumility":6845,"Ġbelong":6846,"Ġbelieved":6847,"Ġtalking":6848,"Ġgrim":6849,"Ġgrass":6850,"Ġdram":6851,"Ġserious":6852,"Ġboisterous":6853,"Ġadvoc":6854,"Ġmerchant":6855,"Ġrevenue":6856,"Ġdoubtful":6857,"Ġdancing":6858,"Ġpersons":6859,"Ġdischarge":6860,"Attend":6861,"Ġcommands":6862,"Ġwindow":6863,"ittany":6864,"Ġcrab":6865,"Ġhangman":6866,"Ġproudest":6867,"Twixt":6868,"Ġintents":6869,"Ġyielding":6870,"Ġbreaks":6871,"Ġmerri":6872,"Ġtemple":6873,"Ġrequire":6874,"Ġdefy":6875,"Ġlately":6876,"Ġtenderness":6877,"Ġsadly":6878,"Ġchose":6879,"Ġgrowth":6880,"Ġasking":6881,"Ġreported":6882,"shine":6883,"Ġwatery":6884,"ĠMontagues":6885,"Ġbattles":6886,"Ġcrying":6887,"Ġlearning":6888,"Ġlearned":6889,"Ġentreaty":6890,"Ġdevils":6891,"Ġmurders":6892,"Ġsilk":6893,"Ġboldness":6894,"Ġruns":6895,"Ġrevengeful":6896,"Happ":6897,"Happy":6898,"voc":6899,"Ġspeedy":6900,"Ġquarter":6901,"Ġconfessor":6902,"ĠNed":6903,"ĠNeptune":6904,"Ġforehead":6905,"Ġterr":6906,"Ġminutes":6907,"Ġrecreant":6908,"Ġdelicate":6909,"Ġdespised":6910,"Ġbosoms":6911,"Ġharmony":6912,"Ġguiltless":6913,"Ġattended":6914,"Ġmurderous":6915,"Ġveil":6916,"Ġdistra":6917,"Ġdistress":6918,"Ġacts":6919,"Ġwonderful":6920,"Ġsingular":6921,"Ġmusician":6922,"Ġclosed":6923,"Ġwaits":6924,"Ġburden":6925,"Ġsuffering":6926,"Ġbreasts":6927,"Ġwedded":6928,"Ġdukes":6929,"shearing":6930,"Ġwisely":6931,"Ġfeasts":6932,"eshrew":6933,"Ġgroom":6934,"Ġredempt":6935,"Ġbeggars":6936,"Read":6937,"Ready":6938,"Swear":6939,"ĠFortune":6940,"Ġcrim":6941,"Ġcrook":6942,"Ġcrush":6943,"standing":6944,"Ġinterrupt":6945,"Ġundo":6946,"Ġevils":6947,"Ġsumm":6948,"ĠVolscians":6949,"ĠVolscian":6950,"Ġvisitation":6951,"Ġbowl":6952,"Ġbaby":6953,"Ġframed":6954,"Ġsafely":6955,"Ġsafeguard":6956,"Ġknocks":6957,"Ġsacrament":6958,"Ġleaden":6959,"Ġlamentation":6960,"ĠIsabella":6961,"Ġignoble":6962,"Ġclean":6963,"Ġoppression":6964,"Ġapproved":6965,"Ġapprobation":6966,"Ġcomplaint":6967,"Ġdrinking":6968,"Ġsurfeit":6969,"Ġmidst":6970,"Ġmidwife":6971,"Ġdestiny":6972,"Ġsmallest":6973,"Confess":6974,"Ġeasily":6975,"Stands":6976,"Ġdamnable":6977,"Ġutmost":6978,"Ġmildly":6979,"Ġcauses":6980,"Ġpuiss":6981,"Ġpitied":6982,"Ġinjustice":6983,"Ġinsinu":6984,"Ġproceedings":6985,"Ġapart":6986,"Ġmedic":6987,"Ġmodel":6988,"Ġfamiliar":6989,"Ġreigns":6990,"Ġprosperity":6991,"Ġlenity":6992,"Ġlowly":6993,"angling":6994,"Ġbending":6995,"Ġslanderous":6996,"ĠCapulets":6997,"Ġmountain":6998,"Ġunpro":6999,"Ġunworthy":7000,"Ġprovided":7001,"Ġplants":7002,"Ġneighbours":7003,"Ġglasses":7004,"Ġextremes":7005,"when":7006,"Ġconclusion":7007,"Ġimagination":7008,"rateful":7009,"Ġunlook":7010,"Ġunluck":7011,"ĠAlban":7012,"govern":7013,"Ġavoided":7014,"Ġeager":7015,"Ġloathsome":7016,"Ġloyalty":7017,"Ġaims":7018,"Ġsensible":7019,"Ġcrept":7020,"Ġpilot":7021,"Ġstatutes":7022,"Ġchiefest":7023,"cannot":7024,"Ġcalamity":7025,"Ġpinch":7026,"Ġinfected":7027,"Ġstocks":7028,"Ġdearer":7029,"Ġangels":7030,"Ġlodged":7031,"Ġlodging":7032,"Ġpursuit":7033,"Ġconqueror":7034,"Prepare":7035,"Ġtutor":7036,"Ġfleet":7037,"Ġfrozen":7038,"ARCHBISHOP":7039,"Ġadvanced":7040,"Ġcorruption":7041,"Ġmagist":7042,"Ġconcerns":7043,"Ġcloak":7044,"Ġwhoreson":7045,"Ġcompassion":7046,"bric":7047,"Ġstolen":7048,"Ġsprings":7049,"Ġswelling":7050,"Ġabhorr":7051,"Ġadverse":7052,"Ġperjured":7053,"Suppose":7054,"Ġmultitude":7055,"Ġnails":7056,"Ġlinea":7057,"Ġpiercing":7058,"Ġinquire":7059,"Ġclimate":7060,"Ġwrinkled":7061,"Ġwhispering":7062,"Ġcorrection":7063,"ĠAntium":7064,"Ġcircumstance":7065,"Lieutenant":7066,"Sometime":7067,"craft":7068,"favour":7069,"Ġtaunts":7070,"Ġmoody":7071,"Ġsteward":7072,"Ġmanifest":7073,"Ġbranches":7074,"Ġunwilling":7075,"ĠTarpeian":7076,"Ġincensed":7077,"Ġsubstitute":7078,"Ġflatterers":7079,"Mistake":7080,"Ġtiger":7081,"Ġmilk":7082,"Ġnumbers":7083,"Ġhinder":7084,"Ġpearl":7085,"Ġbereft":7086,"Ġornaments":7087,"ĠBrittany":7088,"Ġunseen":7089,"Ġdisgraced":7090,"Ġtrifles":7091,"Ġserpent":7092,"Ġsufficient":7093,"Ġestimation":7094,"Ġoccupation":7095,"Break":7096,"Virtue":7097,"Ġeternal":7098,"Ġtardy":7099,"Ġsurpr":7100,"Ġfantast":7101,"Ġlunatic":7102,"Ġhistory":7103,"Ġconsequence":7104,"Ġmarshal":7105,"Ġmarvellous":7106,"Ġprophesy":7107,"Ġceremonious":7108,"Murder":7109,"Ġafeard":7110,"Ġsixteen":7111,"Ġmoment":7112,"Ġmurdered":7113,"Ġfrantic":7114,"Ġfifteen":7115,"Ġcabin":7116,"Ġnorthern":7117,"Ġforsooth":7118,"adventure":7119,"ĠSycorax":7120,"Ġlikelihood":7121,"ABRAHAM":7122,"ĠTewksbury":7123,"ĠJupiter":7124,"Ġadvocate":7125,"Ġredemption":7126,"Again":7127,"Aff":7128,"AGE":7129,"Aumerle":7130,"Apollo":7131,"Apothecary":7132,"Ban":7133,"BON":7134,"Bold":7135,"Bless":7136,"Cle":7137,"Cast":7138,"Cold":7139,"Carry":7140,"Cursed":7141,"Den":7142,"Dest":7143,"Def":7144,"DION":7145,"Direct":7146,"Er":7147,"End":7148,"Every":7149,"EMI":7150,"Fit":7151,"Fill":7152,"Fourth":7153,"Gain":7154,"Grand":7155,"Groom":7156,"Ho":7157,"Har":7158,"High":7159,"Huntsman":7160,"Imp":7161,"Just":7162,"Join":7163,"Keeper":7164,"Left":7165,"Music":7166,"NATH":7167,"Open":7168,"Obey":7169,"Pres":7170,"PAGE":7171,"Ren":7172,"Run":7173,"Ratcliff":7174,"Sus":7175,"Sic":7176,"Trust":7177,"Ur":7178,"Wife":7179,"Worse":7180,"ais":7181,"aches":7182,"avish":7183,"bon":7184,"bot":7185,"bat":7186,"bid":7187,"bur":7188,"best":7189,"bel":7190,"bles":7191,"bearer":7192,"co":7193,"cis":7194,"cour":7195,"cri":7196,"core":7197,"cast":7198,"count":7199,"cured":7200,"cals":7201,"dra":7202,"dist":7203,"daughter":7204,"door":7205,"duce":7206,"eks":7207,"fly":7208,"fend":7209,"found":7210,"franch":7211,"gea":7212,"gage":7213,"grown":7214,"gled":7215,"greed":7216,"hur":7217,"honour":7218,"iqu":7219,"ivers":7220,"jud":7221,"kn":7222,"kens":7223,"lm":7224,"lu":7225,"leness":7226,"mar":7227,"mal":7228,"make":7229,"mind":7230,"much":7231,"mission":7232,"nut":7233,"name":7234,"never":7235,"nothing":7236,"oa":7237,"og":7238,"overy":7239,"occ":7240,"ops":7241,"opher":7242,"ph":7243,"po":7244,"pre":7245,"por":7246,"put":7247,"phan":7248,"pers":7249,"pres":7250,"pire":7251,"ples":7252,"point":7253,"picious":7254,"sion":7255,"spe":7256,"sick":7257,"sign":7258,"such":7259,"side":7260,"somet":7261,"scape":7262,"ton":7263,"ule":7264,"uish":7265,"uced":7266,"ukes":7267,"vil":7268,"vance":7269,"wit":7270,"who":7271,"why":7272,"weet":7273,"were":7274,"witted":7275,"yp":7276,"yet":7277,"ĠU":7278,"Ġire":7279,"ĠNo":7280,"ĠThus":7281,"Ġton":7282,"Ġtur":7283,"Ġtea":7284,"Ġtink":7285,"Ġtreat":7286,"Ġtents":7287,"Ġtainted":7288,"Ġtailor":7289,"Ġtamed":7290,"Ġtumble":7291,"Ġack":7292,"Ġafore":7293,"Ġape":7294,"ouches":7295,"Ġsith":7296,"Ġsine":7297,"Ġsitting":7298,"Ġsiege":7299,"Ġmast":7300,"Ġmant":7301,"Ġmuff":7302,"Ġmiles":7303,"iner":7304,"Ġwester":7305,"Ġwilful":7306,"reth":7307,"report":7308,"has":7309,"haeth":7310,"Ġbought":7311,"Ġbishop":7312,"isc":7313,"isher":7314,"isome":7315,"oricles":7316,"Ġfet":7317,"Ġfem":7318,"Ġfits":7319,"Ġfulf":7320,"erous":7321,"lly":7322,"lling":7323,"itan":7324,"once":7325,"Ġder":7326,"Ġdom":7327,"Ġded":7328,"Ġdil":7329,"Ġdame":7330,"Ġdiet":7331,"Ġdrows":7332,"Ġdumb":7333,"Ġcand":7334,"Ġcave":7335,"Ġcuck":7336,"Ġcrest":7337,"Ġcrew":7338,"Ġcurious":7339,"Ġcushi":7340,"Ġcousins":7341,"Ġnon":7342,"Ġnaught":7343,"Ġnourish":7344,"Ġlink":7345,"Ġlace":7346,"Ġloose":7347,"Ġlung":7348,"Ġlends":7349,"Ġlatest":7350,"Ġyare":7351,"Ġyester":7352,"Ġthrees":7353,"arison":7354,"Ġhood":7355,"Ġom":7356,"Ġobt":7357,"Ġtoe":7358,"Ġtoken":7359,"Ġtoads":7360,"Ġtower":7361,"Ġpine":7362,"Ġpate":7363,"Ġpuff":7364,"Ġpedant":7365,"Ġpounds":7366,"Ġpattern":7367,"Ġheal":7368,"Ġheigh":7369,"stra":7370,"stone":7371,"strong":7372,"strel":7373,"owick":7374,"ank":7375,"omenes":7376,"Ġgam":7377,"Ġgame":7378,"Ġgaz":7379,"Ġgrum":7380,"Ġgeld":7381,"Ġgulf":7382,"Ġgloves":7383,"ato":7384,"atient":7385,"Ġbeet":7386,"Ġbeads":7387,"seth":7388,"Ġinve":7389,"Ġinch":7390,"Ġinvent":7391,"Ġinherit":7392,"cel":7393,"ceives":7394,"ceiving":7395,"Ġhaw":7396,"Ġhall":7397,"Ġhalt":7398,"ediment":7399,"Ġmellow":7400,"imo":7401,"ims":7402,"Ġnotes":7403,"Ġnotwith":7404,"chool":7405,"child":7406,"Ġforces":7407,"key":7408,"Ġweed":7409,"illed":7410,"Ġelo":7411,"Ġebb":7412,"herited":7413,"entious":7414,"ado":7415,"adem":7416,"adise":7417,"rion":7418,"riam":7419,"rief":7420,"rieve":7421,"Ġstu":7422,"Ġstem":7423,"Ġstark":7424,"Ġstaff":7425,"ghts":7426,"idd":7427,"iding":7428,"asy":7429,"asing":7430,"asures":7431,"Ġrent":7432,"Ġrender":7433,"Ġresem":7434,"raken":7435,"rails":7436,"Ġliar":7437,"Ġliqu":7438,"urvy":7439,"Ġsolic":7440,"Ġashore":7441,"Ġdeceive":7442,"Ġdefect":7443,"aining":7444,"verse":7445,"verdone":7446,"estiv":7447,"eap":7448,"earest":7449,"Ġdoct":7450,"Ġdoves":7451,"Ġdoors":7452,"Ġnoses":7453,"Ġbutter":7454,"using":7455,"usiness":7456,"ifth":7457,"Ġsear":7458,"Ġsequ":7459,"Ġallay":7460,"Ġallies":7461,"Ġsued":7462,"Ġsung":7463,"Ġsunder":7464,"Ġsugg":7465,"Ġsugar":7466,"Ġherbs":7467,"thw":7468,"throw":7469,"thrift":7470,"Ġansw":7471,"Ġantic":7472,"terate":7473,"Ġloins":7474,"Ġlocks":7475,"Ġspar":7476,"Ġsped":7477,"Ġspilt":7478,"Ġspices":7479,"Ġspiders":7480,"Ġfaction":7481,"ĠCle":7482,"ĠCaptain":7483,"ĠCarthage":7484,"Ġnegl":7485,"hoeb":7486,"Ġknit":7487,"ANIEL":7488,"ĠRo":7489,"Ġvi":7490,"Ġvine":7491,"Ġvig":7492,"cts":7493,"Ġshout":7494,"Ġshower":7495,"ulous":7496,"antime":7497,"quet":7498,"athom":7499,"Whate":7500,"ĠMadam":7501,"Ġwhet":7502,"Ġwheel":7503,"Ġamend":7504,"ending":7505,"icial":7506,"bled":7507,"iel":7508,"ivered":7509,"Ġblister":7510,"Ġblade":7511,"venient":7512,"ĠGentle":7513,"Forth":7514,"Forbear":7515,"Forgive":7516,"Forbid":7517,"olar":7518,"olve":7519,"olour":7520,"ĠLam":7521,"ĠLod":7522,"ĠLeave":7523,"Ġhatch":7524,"Ġcanker":7525,"feel":7526,"feits":7527,"ressed":7528,"ately":7529,"Ġbrass":7530,"ppet":7531,"pped":7532,"Ġorphan":7533,"allel":7534,"ĠShe":7535,"ĠSweet":7536,"Ġusure":7537,"ĠBes":7538,"ĠBraken":7539,"Ġarch":7540,"Ġargu":7541,"Ġarbit":7542,"Ġunple":7543,"Ġunrest":7544,"Ġworshi":7545,"ĠHa":7546,"ĠHear":7547,"ĠHerc":7548,"elting":7549,"Ġquake":7550,"Ġquaint":7551,"Ġjade":7552,"Ġjoc":7553,"Ġmusty":7554,"Ġgraft":7555,"Ġhole":7556,"cip":7557,"cially":7558,"Ġprog":7559,"Ġprocure":7560,"ĠPercy":7561,"ĠPatri":7562,"ĠPembroke":7563,"ĠPhaeth":7564,"ĠPhoeb":7565,"Ġsap":7566,"Ġmadly":7567,"Ġmadest":7568,"Ġmadman":7569,"ums":7570,"umes":7571,"umps":7572,"uments":7573,"umny":7574,"Ġplate":7575,"Ġplaints":7576,"people":7577,"ĠWh":7578,"ĠWelcome":7579,"ĠWales":7580,"ĠWalter":7581,"owned":7582,"Ġrats":7583,"Ġrites":7584,"Ġrising":7585,"Ġpox":7586,"Ġpoll":7587,"ptory":7588,"ĠAh":7589,"ĠAm":7590,"ĠAr":7591,"Ġtruer":7592,"Thoughts":7593,"Ġmarr":7594,"Ġmarble":7595,"Ġmariners":7596,"Ins":7597,"Infer":7598,"acks":7599,"Ġdisl":7600,"Ġdisorder":7601,"Ġaloof":7602,"Ġaltogether":7603,"Ġheap":7604,"oyal":7605,"Ġhears":7606,"echer":7607,"eches":7608,"Ġabst":7609,"Ġabod":7610,"Ġfold":7611,"Ġfoil":7612,"Ġearl":7613,"Ġearldom":7614,"Ġrode":7615,"Ġrocks":7616,"Ġexclaim":7617,"Ġexact":7618,"Ġexperience":7619,"Ġlooker":7620,"agine":7621,"ervation":7622,"aved":7623,"Ġripen":7624,"Ġridd":7625,"Ġrivers":7626,"tised":7627,"Wherefore":7628,"Ġslack":7629,"Ġwarn":7630,"Ġflame":7631,"ĠTur":7632,"ĠTunis":7633,"ffer":7634,"Ġbreeding":7635,"izab":7636,"sses":7637,"Ġclap":7638,"Ġprec":7639,"Ġpreced":7640,"Ġprerog":7641,"Ġsweets":7642,"Ġprays":7643,"Ġnobleman":7644,"Ġpledge":7645,"ĠDoricles":7646,"Ġperd":7647,"Ġperf":7648,"Ġpermit":7649,"Ġwrangling":7650,"aws":7651,"Ġtrades":7652,"Ġwayward":7653,"Ġheadstrong":7654,"lip":7655,"Ġscour":7656,"Ġscru":7657,"Ġscape":7658,"Ġpreserved":7659,"Ġqueens":7660,"Ġchival":7661,"Ġrages":7662,"Ġraging":7663,"Ġraiment":7664,"Ġragged":7665,"their":7666,"abour":7667,"ĠFear":7668,"ĠFran":7669,"Ġapply":7670,"Ġappell":7671,"Ġappoint":7672,"Ġarmed":7673,"Norfolk":7674,"sweet":7675,"Ġbegot":7676,"range":7677,"Ġmale":7678,"Ġimmediate":7679,"Ġlongest":7680,"ĠMarch":7681,"Ġreplied":7682,"Ġrepossess":7683,"Ġrepetition":7684,"Ġfriendship":7685,"Ġafoot":7686,"ĠJer":7687,"ĠJun":7688,"ĠJOHN":7689,"ĠJesu":7690,"Ġconspir":7691,"Ġconsumed":7692,"Ġconsidered":7693,"Ġperem":7694,"Ġlevy":7695,"Ġentrails":7696,"Ġlieutenant":7697,"chelor":7698,"Ġresort":7699,"Ġrescue":7700,"Ġtried":7701,"Ġmoan":7702,"Ġfollies":7703,"Ġprivy":7704,"Thyself":7705,"Ġchaf":7706,"Ġchap":7707,"Ġpeaceful":7708,"Ġelsewhere":7709,"ailing":7710,"asonable":7711,"Ġbackward":7712,"Ġcounted":7713,"Ġladyship":7714,"Ġneedle":7715,"Ġneedless":7716,"Ġtrembles":7717,"Ġhighway":7718,"Stanley":7719,"Ġhusbands":7720,"Ġbanquet":7721,"Ġminded":7722,"Ġbraved":7723,"Ġchest":7724,"Ġbribe":7725,"Ġshowers":7726,"Ġconfer":7727,"Ġconfines":7728,"Ġconfusion":7729,"Ġcoz":7730,"Ġcoal":7731,"Ġcoals":7732,"Ġcaused":7733,"Ġglories":7734,"Ġimpart":7735,"Ġimpud":7736,"Ġimpatience":7737,"Ġimpression":7738,"Ġimpatient":7739,"Ġimpediment":7740,"Ġbodes":7741,"Ġmistaking":7742,"Ġlightly":7743,"Ġlightness":7744,"Ġnatures":7745,"Ġpardons":7746,"Claudio":7747,"Ġbeseem":7748,"Ġhappier":7749,"Ġdevice":7750,"blown":7751,"Ġunderne":7752,"Ġundergo":7753,"Ġkilled":7754,"Ġfollowing":7755,"Ġfarm":7756,"Ġsunshine":7757,"Ġbush":7758,"Any":7759,"Ġstreet":7760,"Ġstream":7761,"Ġturned":7762,"Ġcomforts":7763,"Ġcomfortable":7764,"Ġsleeps":7765,"Ġsleepy":7766,"itories":7767,"Ġwelcomes":7768,"Ġthankful":7769,"Ġbox":7770,"Ġboon":7771,"Ġboat":7772,"Ġfights":7773,"Ġfighting":7774,"holds":7775,"Ġfalsely":7776,"plish":7777,"Ġmerciful":7778,"Ġmatters":7779,"Ġassault":7780,"Ġprisoners":7781,"Ġdangers":7782,"Ġdreamt":7783,"enerate":7784,"Ġstrait":7785,"Ġdischarged":7786,"Ġcommanding":7787,"Ġdared":7788,"Twill":7789,"Twice":7790,"Twenty":7791,"comp":7792,"Ġsisterhood":7793,"Ġfouler":7794,"versy":7795,"Ġdenial":7796,"Ġawry":7797,"Ġmerrim":7798,"Ġsupport":7799,"Ġsuppose":7800,"Ġsuppli":7801,"Ġbeating":7802,"Ġrequires":7803,"Ġrequired":7804,"Ġvalue":7805,"Ġaffright":7806,"Ġwoeful":7807,"Ġtenderly":7808,"Ġreturned":7809,"mph":7810,"mpet":7811,"Ġdeeper":7812,"Ġdeeply":7813,"Ġfootman":7814,"Ġchop":7815,"Ġcoldly":7816,"Ġnursed":7817,"azon":7818,"Ġplucks":7819,"shining":7820,"xton":7821,"Ġairy":7822,"Ġsuffice":7823,"Ġpastime":7824,"Ġfasting":7825,"Ġsilken":7826,"Ġstrongly":7827,"Canst":7828,"Ġpossessed":7829,"voke":7830,"voided":7831,"Ġinfring":7832,"Ġinfirm":7833,"Ġprofan":7834,"Ġprofits":7835,"Ġconfession":7836,"ĠNature":7837,"Ġmocking":7838,"Ġmockery":7839,"Ġforest":7840,"Ġdivided":7841,"Ġdivines":7842,"Ġdivision":7843,"Ġcarries":7844,"Ġposterity":7845,"Ġcounsels":7846,"Command":7847,"Commit":7848,"Ġterrible":7849,"Ġminstrel":7850,"Ġinconstant":7851,"Ġrecover":7852,"Ġresolute":7853,"nowledge":7854,"Ġharmless":7855,"ĠHector":7856,"Ġagreed":7857,"Ġwhipt":7858,"Ġdishon":7859,"Ġdisting":7860,"Ġdisturb":7861,"Ġdistressed":7862,"Ġtribune":7863,"Ġtribute":7864,"Ġdraws":7865,"Ġactor":7866,"Ġstirs":7867,"Ġstirring":7868,"Ġbreathes":7869,"Ġclosely":7870,"Ġforgiveness":7871,"Ġsufferance":7872,"Ġskulls":7873,"Ġsigns":7874,"Ġwisest":7875,"Ġregiment":7876,"Ġpoisonous":7877,"Ġcheerfully":7878,"shepherd":7879,"Ġtax":7880,"Ġdireful":7881,"Ġpays":7882,"Ġsuccor":7883,"Ġblessings":7884,"Ġbleed":7885,"Ġbleeds":7886,"Ġinterchange":7887,"Ġembass":7888,"Ġmalign":7889,"Ġhurried":7890,"Ġchamberlain":7891,"Ġcowardice":7892,"Ġlimits":7893,"Ġscorns":7894,"Ġwitnesses":7895,"Ġbroad":7896,"Ġcreated":7897,"Ġcreatures":7898,"Ġcaparison":7899,"ĠChristopher":7900,"Ġidly":7901,"Ġhideous":7902,"Ġbeastly":7903,"Ġrebel":7904,"Ġrebuke":7905,"Ġscarlet":7906,"Ġsecrets":7907,"Ġfills":7908,"Ġstrumpet":7909,"Ġpuppet":7910,"Ġinjurious":7911,"Ġinjuries":7912,"Ġinsulting":7913,"Ġinnocence":7914,"Ġadmit":7915,"Ġadmir":7916,"Ġadmitted":7917,"Ġfamish":7918,"Ġgovernor":7919,"Enough":7920,"Proud":7921,"Ġscholar":7922,"Ġmutiny":7923,"Ġlustful":7924,"Ġthreats":7925,"Ġindiffe":7926,"Ġindirect":7927,"Ġsolely":7928,"Ġgrandfather":7929,"Ġsafer":7930,"Ġsentenced":7931,"Ġdrunkard":7932,"Belike":7933,"Heart":7934,"Measure":7935,"Meantime":7936,"piring":7937,"Ġmounting":7938,"Ġfeat":7939,"Ġcaptive":7940,"ĠAntonio":7941,"Ġcontrad":7942,"Ġdegrees":7943,"Ġdemands":7944,"Ġremedies":7945,"Ġunderstanding":7946,"Ġgreetings":7947,"Ġtriumphs":7948,"Ġfarthest":7949,"Ġfaintly":7950,"Ġdwells":7951,"Ġthroats":7952,"Ġhunger":7953,"Ġgait":7954,"Ġgaol":7955,"Ġgape":7956,"Ġgaoler":7957,"Ġgentler":7958,"Ġchastity":7959,"Ġchastisement":7960,"Ġmiseries":7961,"Ġextremest":7962,"Ġscarcely":7963,"whelm":7964,"Ġfirmly":7965,"Ġholid":7966,"Ġinclination":7967,"Ġrelig":7968,"Ġunborn":7969,"Ġbootless":7970,"Ġconditions":7971,"Ġschoolmaster":7972,"Ġfruitful":7973,"Ġbald":7974,"Ġbachelor":7975,"Ġfeeding":7976,"Ġstooping":7977,"Ġunlawful":7978,"ĠAlas":7979,"therefore":7980,"Ġimportune":7981,"Ġprophecy":7982,"portion":7983,"Ġdecay":7984,"Ġknightly":7985,"Ġknighthood":7986,"Ġshrink":7987,"Ġroundly":7988,"Ġfrighted":7989,"Ġassistance":7990,"Ġdelights":7991,"Ġutterance":7992,"actors":7993,"Ġcreate":7994,"Ġlouder":7995,"Ġstarve":7996,"Ġjealousies":7997,"Ġrascals":7998,"Ġtreachery":7999,"Ġerror":8000,"Ġcalumny":8001,"Ġphysician":8002,"Ġweighty":8003,"Ġsupreme":8004,"runes":8005,"Ġpursued":8006,"Repent":8007,"Shame":8008,"paration":8009,"Ġwolves":8010,"Ġwonders":8011,"Ġbaseness":8012,"Ġbudge":8013,"Ġdiadem":8014,"Ġbeware":8015,"Ġrewards":8016,"Ġpronounced":8017,"Ġambition":8018,"Ġargos":8019,"ĠFlore":8020,"ĠFloriz":8021,"Ġcracking":8022,"Ġpenitence":8023,"Ġpublicly":8024,"Arm":8025,"Arise":8026,"doing":8027,"scap":8028,"Ġmagic":8029,"Ġhazel":8030,"Ġmerely":8031,"ĠCalais":8032,"ĠElizab":8033,"Ġapprehens":8034,"Ġgreyh":8035,"Ġcholeric":8036,"Consider":8037,"glass":8038,"Ġmillions":8039,"regory":8040,"Ġthorns":8041,"Ġbefal":8042,"Ġbefits":8043,"Ġnobler":8044,"ĠSTANLEY":8045,"Ġworthily":8046,"Ġadvertised":8047,"Ġperjury":8048,"Ġwitchcraft":8049,"Ġbrawl":8050,"Ġbrawling":8051,"Ġachieve":8052,"Ġachieved":8053,"Ġsyll":8054,"Ġwinged":8055,"Ġfunction":8056,"Ġhorror":8057,"Ġforsake":8058,"Ġevents":8059,"Ġdissemble":8060,"Ġclimb":8061,"ĠDeath":8062,"Ġrestraint":8063,"Ġafflict":8064,"ĠAntiates":8065,"Ġcircumstances":8066,"Condemn":8067,"Knock":8068,"Small":8069,"mongst":8070,"Ġtimeless":8071,"Ġwidows":8072,"Ġnapkin":8073,"Ġdebase":8074,"Ġsuperfl":8075,"Ġsplit":8076,"Ġvillany":8077,"Ġvolume":8078,"Ġshriek":8079,"Ġdispleasure":8080,"Ġdisguised":8081,"Ġscolding":8082,"Ġcouncil":8083,"Ġcouncils":8084,"Ġcurtain":8085,"Amongst":8086,"Between":8087,"Betwixt":8088,"Pursu":8089,"Seize":8090,"URREY":8091,"Ġbaggage":8092,"Ġhomage":8093,"Ġhigher":8094,"Ġpedlar":8095,"Ġhaughty":8096,"ĠGreece":8097,"ĠScotland":8098,"ĠSpeak":8099,"Ġunfeigned":8100,"Ġappeared":8101,"Ġconsorted":8102,"Ġbankrupt":8103,"Ġdragon":8104,"Ġtransported":8105,"Evermore":8106,"England":8107,"Ġsaucy":8108,"Ġmourning":8109,"Ġcentre":8110,"Ġissued":8111,"Ġsociety":8112,"Ġanchor":8113,"ĠEmilia":8114,"Ġshelter":8115,"ĠWelshmen":8116,"Ġimperial":8117,"Ġlecture":8118,"Ġrestored":8119,"Ġsmiling":8120,"Ġcounsellor":8121,"Ġinferior":8122,"Ġdivorce":8123,"Ġtroublous":8124,"Ġexpedition":8125,"Ġinsolence":8126,"Dispatch":8127,"Ġconcluded":8128,"Ġtestimony":8129,"Ġreckoning":8130,"Affection":8131,"Touching":8132,"posterous":8133,"Ġsands":8134,"Ġcordial":8135,"Ġpestilence":8136,"Ġpupil":8137,"Ġugly":8138,"Ġvulgar":8139,"Ġvassal":8140,"Ġamazement":8141,"Ġcanopy":8142,"Ġrancour":8143,"Ġpocket":8144,"Ġdisobed":8145,"Ġplebeians":8146,"Ġnightingale":8147,"Ġwhistle":8148,"Ġharlot":8149,"Ġmerrily":8150,"Ġterritories":8151,"Ġpuissant":8152,"Ġmedicine":8153,"BONA":8154,"EMILIA":8155,"Gainst":8156,"Grandam":8157,"Harp":8158,"NATHANIEL":8159,"Urge":8160,"iquity":8161,"Ġtonight":8162,"Ġsinew":8163,"Ġwestern":8164,"Ġfemale":8165,"Ġcuckold":8166,"Ġlungs":8167,"Ġobtain":8168,"Ġnotwithstanding":8169,"Ġeloqu":8170,"Ġsolicit":8171,"estival":8172,"Ġvineyard":8173,"ĠLodowick":8174,"ĠBrakenbury":8175,"ĠHercules":8176,"Ġjocund":8177,"ĠPatrician":8178,"ĠPhaethon":8179,"ĠPhoebus":8180,"Ġprecedent":8181,"Ġprerogative":8182,"ĠFrancis":8183,"Ġperemptory":8184,"Ġunderneath":8185,"Ġmerriment":8186,"Ġindifferent":8187,"ĠFlorizel":8188,"ĠElizabeth":8189,"Ġapprehension":8190,"'!":8191,"'--":8192,"Aufidius":8193,"ALIS":8194,"BL":8195,"Bad":8196,"Bore":8197,"Best":8198,"Breat":8199,"Back":8200,"Bohemia":8201,"Beshrew":8202,"Ch":8203,"Che":8204,"Cut":8205,"Chi":8206,"Care":8207,"CIS":8208,"Citizen":8209,"Charge":8210,"Dou":8211,"Dro":8212,"Die":8213,"Ele":8214,"EAR":8215,"Far":8216,"Fri":8217,"Fly":8218,"Fell":8219,"Fine":8220,"Found":8221,"FRAN":8222,"Fool":8223,"Friar":8224,"Fellow":8225,"Gl":8226,"Gu":8227,"Gold":8228,"Gloucester":8229,"Grumio":8230,"Girl":8231,"Given":8232,"Hard":8233,"Host":8234,"Hap":8235,"HOMAS":8236,"Holy":8237,"Ill":8238,"Jul":8239,"Jesu":8240,"Katharina":8241,"Less":8242,"Last":8243,"Lend":8244,"Little":8245,"Lives":8246,"Man":8247,"Mount":8248,"Mere":8249,"Masters":8250,"Mercy":8251,"Near":8252,"Night":8253,"Nine":8254,"Opp":8255,"Oxford":8256,"Pit":8257,"Perc":8258,"Pale":8259,"Red":8260,"Rest":8261,"Ref":8262,"Sin":8263,"Sen":8264,"Sent":8265,"Sad":8266,"Sel":8267,"Soul":8268,"Sorrow":8269,"Sto":8270,"Sland":8271,"Seal":8272,"Sleep":8273,"Tong":8274,"Time":8275,"Tran":8276,"Takes":8277,"Trem":8278,"Tullus":8279,"UNT":8280,"Went":8281,"Yonder":8282,"ait":8283,"aus":8284,"avery":8285,"aled":8286,"acious":8287,"against":8288,"avoided":8289,"bre":8290,"bro":8291,"ball":8292,"book":8293,"bred":8294,"bject":8295,"bham":8296,"bhors":8297,"business":8298,"cas":8299,"could":8300,"cond":8301,"creat":8302,"corn":8303,"chard":8304,"certain":8305,"cats":8306,"custom":8307,"content":8308,"cued":8309,"cency":8310,"dan":8311,"dent":8312,"dur":8313,"dro":8314,"dish":8315,"dict":8316,"doubt":8317,"deliver":8318,"ele":8319,"every":8320,"eress":8321,"eases":8322,"fan":8323,"fix":8324,"fellows":8325,"gom":8326,"gher":8327,"gone":8328,"gnant":8329,"hill":8330,"hra":8331,"ias":8332,"ige":8333,"iod":8334,"iber":8335,"iable":8336,"iction":8337,"iby":8338,"ky":8339,"lay":8340,"lord":8341,"lous":8342,"live":8343,"lves":8344,"lorn":8345,"lause":8346,"mo":8347,"min":8348,"mast":8349,"mak":8350,"matter":8351,"mony":8352,"net":8353,"none":8354,"nel":8355,"need":8356,"oz":8357,"oft":8358,"oever":8359,"phe":8360,"pse":8361,"pter":8362,"pho":8363,"past":8364,"part":8365,"pence":8366,"poor":8367,"piece":8368,"pril":8369,"poses":8370,"rings":8371,"rates":8372,"roop":8373,"sl":8374,"sir":8375,"sil":8376,"song":8377,"sist":8378,"since":8379,"serv":8380,"sorrow":8381,"sby":8382,"sia":8383,"school":8384,"te":8385,"too":8386,"tree":8387,"true":8388,"tered":8389,"trick":8390,"tsey":8391,"uc":8392,"uing":8393,"uity":8394,"ubs":8395,"ugg":8396,"ueless":8397,"vill":8398,"vion":8399,"vity":8400,"vice":8401,"viol":8402,"wr":8403,"wind":8404,"worn":8405,"ween":8406,"widow":8407,"wench":8408,"warn":8409,"worth":8410,"yally":8411,"ymph":8412,"zwater":8413,"Ġ&":8414,"ĠĠ":8415,"ĠNot":8416,"ĠThese":8417,"Ġtil":8418,"Ġtum":8419,"Ġtire":8420,"Ġtatter":8421,"Ġtides":8422,"Ġtunes":8423,"Ġtales":8424,"Ġteeming":8425,"Ġtumbling":8426,"hen":8427,"hence":8428,"Ġau":8429,"Ġaust":8430,"Ġaery":8431,"Ġaches":8432,"Ġsly":8433,"Ġsurn":8434,"Ġsongs":8435,"Ġmot":8436,"Ġmow":8437,"Ġming":8438,"Ġmart":8439,"Ġmum":8440,"Ġmap":8441,"Ġmass":8442,"Ġmute":8443,"Ġmuse":8444,"inc":8445,"inet":8446,"inance":8447,"inable":8448,"inite":8449,"Ġwra":8450,"Ġware":8451,"Ġwaken":8452,"Ġwaning":8453,"Ġwenches":8454,"Ġwalks":8455,"reef":8456,"repare":8457,"reement":8458,"haw":8459,"hast":8460,"happ":8461,"nders":8462,"Ġbust":8463,"Ġbone":8464,"Ġbau":8465,"Ġbind":8466,"Ġbate":8467,"Ġbide":8468,"Ġbaw":8469,"Ġbier":8470,"Ġbale":8471,"Ġbount":8472,"Ġbench":8473,"Ġbash":8474,"Ġbills":8475,"isk":8476,"isle":8477,"Ġfen":8478,"Ġfed":8479,"Ġfut":8480,"Ġfate":8481,"Ġfence":8482,"Ġfile":8483,"Ġfester":8484,"Ġfitted":8485,"Ġfees":8486,"Ġfitting":8487,"Ġfowl":8488,"Ġfront":8489,"Ġfickle":8490,"Ġfathom":8491,"Ġfestival":8492,"erman":8493,"eria":8494,"erwhelm":8495,"itche":8496,"Ġdun":8497,"Ġdaint":8498,"Ġdastard":8499,"Ġdaring":8500,"Ġduteous":8501,"Ġdainty":8502,"Ġced":8503,"Ġcas":8504,"Ġcard":8505,"Ġcele":8506,"Ġnearer":8507,"Ġnerves":8508,"Ġniece":8509,"Ġnuns":8510,"Ġnearest":8511,"Ġnymph":8512,"Ġninet":8513,"Ġlain":8514,"Ġlame":8515,"Ġlass":8516,"Ġlaughter":8517,"Ġlaz":8518,"Ġlecher":8519,"Ġyew":8520,"Ġyellow":8521,"Ġthra":8522,"Ġthres":8523,"Ġthrew":8524,"Ġthreef":8525,"arth":8526,"arling":8527,"Ġhook":8528,"Ġhilt":8529,"Ġhint":8530,"Ġhounds":8531,"Ġhills":8532,"Ġox":8533,"Ġost":8534,"Ġoce":8535,"Ġtoss":8536,"Ġphe":8537,"Ġpir":8538,"Ġpith":8539,"Ġpoo":8540,"Ġpul":8541,"Ġpull":8542,"Ġpark":8543,"Ġpens":8544,"Ġpotion":8545,"Ġpines":8546,"Ġpals":8547,"Ġpiled":8548,"Ġprunes":8549,"ĠIrish":8550,"Ġhen":8551,"Ġhew":8552,"Ġhedge":8553,"oting":8554,"oted":8555,"stit":8556,"stood":8557,"stool":8558,"strue":8559,"staring":8560,"owing":8561,"ange":8562,"anous":8563,"another":8564,"anks":8565,"answer":8566,"oming":8567,"Ġgle":8568,"Ġgay":8569,"Ġgir":8570,"Ġgear":8571,"Ġgilt":8572,"Ġgild":8573,"Ġgorge":8574,"Ġginger":8575,"Ġglove":8576,"atin":8577,"athan":8578,"atory":8579,"atiate":8580,"Ġbeho":8581,"Ġbecom":8582,"sea":8583,"Ġinhabit":8584,"Ġhab":8585,"Ġhaven":8586,"lex":8587,"lehill":8588,"ayer":8589,"ldren":8590,"iry":8591,"edy":8592,"uto":8593,"utus":8594,"utches":8595,"imple":8596,"Ġnotorious":8597,"cho":8598,"Ġissues":8599,"Ġforn":8600,"Ġforms":8601,"Ġforlorn":8602,"keep":8603,"Ġweb":8604,"ooing":8605,"Ġeg":8606,"Ġel":8607,"Ġew":8608,"Ġegg":8609,"hertsey":8610,"enting":8611,"rip":8612,"rian":8613,"ribe":8614,"Ġsty":8615,"Ġstart":8616,"Ġstall":8617,"Ġstage":8618,"Ġstint":8619,"Ġstew":8620,"Ġstray":8621,"Ġsteter":8622,"Ġstring":8623,"Ġstarts":8624,"Ġstrat":8625,"Ġkern":8626,"Ġkenn":8627,"ashy":8628,"asci":8629,"asite":8630,"Ġrevers":8631,"Ġrelish":8632,"Ġrelease":8633,"Ġrevell":8634,"lying":8635,"lysses":8636,"raign":8637,"Ġliars":8638,"urity":8639,"urther":8640,"urps":8641,"urbs":8642,"urope":8643,"alf":8644,"alo":8645,"alance":8646,"alty":8647,"Ġsoar":8648,"Ġsober":8649,"Ġsolace":8650,"Ġascend":8651,"Ġaspiring":8652,"rosby":8653,"hilip":8654,"vering":8655,"Ġshamed":8656,"Ġdol":8657,"Ġdoit":8658,"Ġdoings":8659,"usc":8660,"usale":8661,"usual":8662,"ussia":8663,"ifter":8664,"Ġsem":8665,"Ġsex":8666,"Ġsevent":8667,"Ġsepar":8668,"geon":8669,"geal":8670,"Thither":8671,"Throng":8672,"Ġsues":8673,"Ġsuret":8674,"Ġsulp":8675,"Told":8676,"Together":8677,"Ġherds":8678,"rung":8679,"ruised":8680,"things":8681,"thought":8682,"thren":8683,"Ġant":8684,"Ġangu":8685,"ternal":8686,"arded":8687,"hance":8688,"hanging":8689,"Ġspot":8690,"Ġspell":8691,"Ġspear":8692,"Ġspurn":8693,"Ġspace":8694,"Ġspotted":8695,"Ġfails":8696,"Ġfabric":8697,"ĠCy":8698,"ĠCot":8699,"ĠCast":8700,"ĠCall":8701,"ĠChertsey":8702,"ĠCrosby":8703,"Ġknell":8704,"Ġknavery":8705,"ĠRag":8706,"ĠRoss":8707,"ĠRussia":8708,"Ġvest":8709,"Ġvio":8710,"Ġvap":8711,"Ġvices":8712,"asted":8713,"astian":8714,"Ġwhate":8715,"ighton":8716,"Ġshine":8717,"Ġshouts":8718,"ulation":8719,"Ġupper":8720,"qua":8721,"quin":8722,"quis":8723,"qual":8724,"quess":8725,"quaint":8726,"quiet":8727,"Ġgoodman":8728,"usters":8729,"Ġpry":8730,"Ġatone":8731,"Ġmanly":8732,"Ġmankind":8733,"Ġmanacles":8734,"Ġmangled":8735,"ĠMab":8736,"Ġwheres":8737,"Ġwheels":8738,"ĠEurope":8739,"Ġamity":8740,"Ġamended":8741,"endom":8742,"icing":8743,"ican":8744,"icide":8745,"icester":8746,"Ġconver":8747,"Ġconvers":8748,"Ġconvent":8749,"Ġconstable":8750,"Ġblots":8751,"Ġblasp":8752,"vener":8753,"ĠGuild":8754,"ĠGregory":8755,"Forget":8756,"Ġshepher":8757,"Ġsheets":8758,"eminate":8759,"Ġgoest":8760,"areth":8761,"Ġwasp":8762,"oln":8763,"ĠLay":8764,"ĠLud":8765,"ĠLatin":8766,"Ġhatches":8767,"Ġknowest":8768,"Ġcannib":8769,"ersha":8770,"ershire":8771,"Ġsayest":8772,"Ġswim":8773,"Ġswine":8774,"Ġswifter":8775,"Ġbrine":8776,"Ġbrittle":8777,"pper":8778,"Ġorchard":8779,"ĠSay":8780,"ĠSome":8781,"ĠSix":8782,"ĠShow":8783,"ĠSeb":8784,"ĠSURREY":8785,"ĠSALIS":8786,"Ġusing":8787,"Ġusage":8788,"ĠOf":8789,"ĠOr":8790,"ĠOnce":8791,"ĠOverdone":8792,"ĠBel":8793,"ĠBoy":8794,"ĠBret":8795,"ĠBrist":8796,"ĠBrand":8797,"ĠBishop":8798,"odity":8799,"Ġung":8800,"Ġunity":8801,"Ġunman":8802,"Ġunaw":8803,"Ġunlo":8804,"Ġungra":8805,"Ġunacc":8806,"Ġungentle":8807,"Ġunivers":8808,"Ġunthrift":8809,"Ġunavoided":8810,"Ġunusual":8811,"igation":8812,"ĠHad":8813,"ĠHas":8814,"ĠHallow":8815,"hyme":8816,"elpho":8817,"Ġquest":8818,"Whence":8819,"Ġjar":8820,"Ġjump":8821,"Ġjoll":8822,"Ġhoped":8823,"cible":8824,"cipl":8825,"Ġprover":8826,"Ġproduce":8827,"Ġproffer":8828,"ĠPut":8829,"ĠPil":8830,"ĠPriam":8831,"ĠPhilip":8832,"Ġsails":8833,"umn":8834,"Ġplent":8835,"Ġplotted":8836,"pecially":8837,"ĠWife":8838,"Ġensue":8839,"Ġenroll":8840,"Ġenjoin":8841,"Ġenfranch":8842,"unch":8843,"Ġrood":8844,"Ġrings":8845,"Ġrates":8846,"Ġoutst":8847,"pted":8848,"pture":8849,"Ġhowl":8850,"ĠAE":8851,"ĠAg":8852,"ĠAt":8853,"ĠAfri":8854,"ĠAriel":8855,"ĠAbhors":8856,"ĠApril":8857,"Ġtrudge":8858,"Ġhandle":8859,"Ġsomebod":8860,"Ġmarquess":8861,"Inf":8862,"acket":8863,"ĠYes":8864,"Ġdislike":8865,"Ġdishes":8866,"Ġdisposed":8867,"Ġdiseases":8868,"Ġdiscipl":8869,"Ġhearth":8870,"Ġability":8871,"Ġabuses":8872,"Ġfoaming":8873,"Ġdaylight":8874,"Ġrod":8875,"Ġroad":8876,"Ġrope":8877,"Ġrogues":8878,"Ġroyally":8879,"Ġexha":8880,"Ġexternal":8881,"Ġtellus":8882,"agate":8883,"agems":8884,"Ġrip":8885,"Ġarticles":8886,"Ġarticle":8887,"Ġslide":8888,"Ġslanders":8889,"Ġwary":8890,"Ġwarning":8891,"Ġflour":8892,"Ġflag":8893,"Ġfliers":8894,"Ġfearless":8895,"ĠTHOMAS":8896,"bery":8897,"bering":8898,"oughby":8899,"Ġbrethren":8900,"Beg":8901,"apable":8902,"ighs":8903,"Ġgreatly":8904,"Ġfairies":8905,"izard":8906,"Ġpartake":8907,"Ġpartial":8908,"Ġcalling":8909,"Ġadul":8910,"Ġadorn":8911,"Ġadult":8912,"Ġadder":8913,"Ġcommit":8914,"Ġcommodity":8915,"Yourself":8916,"Ġclothe":8917,"Ġpreparation":8918,"Ġpregnant":8919,"assad":8920,"ĠDion":8921,"ĠDelpho":8922,"Ġperused":8923,"Ġperiod":8924,"liction":8925,"livion":8926,"Ġscra":8927,"Ġscare":8928,"Ġscars":8929,"Ġscouts":8930,"Ġpresum":8931,"Ġpresses":8932,"Ġprescri":8933,"Ġnightly":8934,"pery":8935,"peror":8936,"peration":8937,"Ġraw":8938,"Ġrarest":8939,"Ġraze":8940,"Ġrabble":8941,"Ġkeen":8942,"abb":8943,"ĠFifth":8944,"Ġapplause":8945,"Ġcontem":8946,"Ġremiss":8947,"Ġremote":8948,"ilty":8949,"swear":8950,"sworn":8951,"ressing":8952,"Ġbegging":8953,"Ġlongs":8954,"Ġlonging":8955,"ĠMark":8956,"Ġlively":8957,"meant":8958,"Ġrepaid":8959,"Ġreproof":8960,"Ġreprieve":8961,"forward":8962,"Ġmightily":8963,"atching":8964,"ĠJud":8965,"ĠJule":8966,"Ġrub":8967,"Ġconsume":8968,"Ġconserves":8969,"Ġcrowned":8970,"Ġpeck":8971,"Ġpeasant":8972,"hallow":8973,"Ġlevied":8974,"Ġharms":8975,"Ġharder":8976,"Ġresteth":8977,"Ġcourses":8978,"Ġentire":8979,"attery":8980,"Ġtongueless":8981,"Ġkeeping":8982,"iously":8983,"Ġslender":8984,"Ġreserved":8985,"Ġresidence":8986,"fts":8987,"Ġmoans":8988,"Ġmolehill":8989,"retion":8990,"Ġhourly":8991,"uddy":8992,"Ġendow":8993,"Ġendea":8994,"ieldy":8995,"Ġpricks":8996,"Ġpurged":8997,"Ġpurses":8998,"Ġpursues":8999,"Ġpurposes":9000,"Ġcompell":9001,"Ġcomposition":9002,"ertainty":9003,"Ġchain":9004,"Ġchaff":9005,"Ġchains":9006,"Prosper":9007,"Ġsuborn":9008,"Ġsubsc":9009,"Ġsubmission":9010,"Ġsuburbs":9011,"Ġsmiled":9012,"Ġsmelt":9013,"ected":9014,"Ġtraged":9015,"Ġtragic":9016,"Ġtraffic":9017,"Ġhush":9018,"Ġneedy":9019,"two":9020,"Ġtreble":9021,"Stir":9022,"Ġseemeth":9023,"Ġrightly":9024,"aching":9025,"Ġbragg":9026,"Ġbrazen":9027,"Ġcheers":9028,"Ġcharms":9029,"Ġcharters":9030,"Ġcharitable":9031,"Ġchanges":9032,"Ġconfined":9033,"Ġhandsome":9034,"beha":9035,"bered":9036,"Ġcoats":9037,"Ġglister":9038,"Ġimpose":9039,"Ġfortnight":9040,"Ġfortunate":9041,"Ġbringing":9042,"Ġmistook":9043,"Ġpasses":9044,"Ġthrong":9045,"Ġpleaseth":9046,"ĠAnswer":9047,"Clifford":9048,"Ġbesiege":9049,"Ġjustly":9050,"Ġjustify":9051,"Ġwrongfully":9052,"Ġmiscar":9053,"ension":9054,"Ġplaced":9055,"blind":9056,"Ġundert":9057,"Ġhelping":9058,"Ġlesson":9059,"Ġfooling":9060,"Ġsuns":9061,"Ġchid":9062,"Ġchides":9063,"Ġchron":9064,"Unb":9065,"Unw":9066,"Ġbusied":9067,"Angelo":9068,"overed":9069,"Ġstride":9070,"Ġstripes":9071,"ivity":9072,"Ġstreak":9073,"Ġwomanish":9074,"Ġturning":9075,"Ġhumane":9076,"Ġbelongs":9077,"Ġcourts":9078,"Ġtalked":9079,"Ġoverheard":9080,"Ġoverthrow":9081,"Ġbuilt":9082,"Ġburial":9083,"Ġibat":9084,"Ġattent":9085,"Ġattach":9086,"Ġplays":9087,"Ġinstance":9088,"Ġinstead":9089,"Ġwelcom":9090,"Ġwelkin":9091,"Ġcurs":9092,"Ġcurbs":9093,"Ġemulation":9094,"pling":9095,"plain":9096,"Ġsending":9097,"Ġcountryman":9098,"Ġdoubted":9099,"Ġwishing":9100,"Ġreasonable":9101,"Wouldst":9102,"Ġdances":9103,"Ġbreaths":9104,"Ġgiant":9105,"Ġstrain":9106,"Ġdiscred":9107,"Ġdiscords":9108,"Ġdiscreet":9109,"Ġdiscovery":9110,"Ġdiscretion":9111,"Alone":9112,"Ġsenis":9113,"Ġcommandment":9114,"Ġwinding":9115,"Ġstrang":9116,"Ġswearing":9117,"Ġdepth":9118,"comb":9119,"comfort":9120,"Ġtending":9121,"Ġgreets":9122,"Ġgetting":9123,"Ġintends":9124,"Ġintended":9125,"Ġinterest":9126,"Ġkissing":9127,"Ġbreaking":9128,"Ġawe":9129,"Ġawful":9130,"Hermione":9131,"Ġtemperate":9132,"Ġsupple":9133,"Ġspoils":9134,"Ġlamp":9135,"Ġrequite":9136,"Ġrequital":9137,"Ġmete":9138,"Ġsoonest":9139,"Ġreturns":9140,"acre":9141,"ackey":9142,"Ġmarrying":9143,"Ġfooting":9144,"Ġwarrants":9145,"ĠJulius":9146,"Ġthroughly":9147,"soe":9148,"Ġchoke":9149,"Ġcolder":9150,"Ġasked":9151,"Ġplucked":9152,"show":9153,"ĠMontgom":9154,"Ġstrangely":9155,"Ġbats":9156,"Ġentreated":9157,"Whoop":9158,"Ġvisor":9159,"Ġdispro":9160,"ixture":9161,"Mayor":9162,"Ġordain":9163,"Ġordinance":9164,"Ġquicken":9165,"Ġdesired":9166,"Ġhardy":9167,"Ġwooers":9168,"Ġinfancy":9169,"Ġinfamy":9170,"Ġinflu":9171,"Ġinfinite":9172,"Become":9173,"Spoke":9174,"Ġwearing":9175,"Ġdelivery":9176,"Ġspeedily":9177,"Ġquarre":9178,"Ġprofound":9179,"Ġstrengthen":9180,"cession":9181,"Ġforefather":9182,"Ġforerun":9183,"Ġforetell":9184,"Ġdivide":9185,"Ġcarrion":9186,"Ġposts":9187,"Ġposterns":9188,"Ġexecut":9189,"Ġparch":9190,"Ġparadise":9191,"Ġparlous":9192,"Ġparasite":9193,"Ġincur":9194,"Ġincapable":9195,"Ġrecount":9196,"ĠTheir":9197,"Ġtitles":9198,"Ġopening":9199,"Ġshorten":9200,"Ġseeking":9201,"Ġmurdering":9202,"changing":9203,"Ġvehe":9204,"ĠHelp":9205,"Ġagony":9206,"Ġagreement":9207,"Ġwhipped":9208,"Ġwatchful":9209,"Ġdistemper":9210,"Seeking":9211,"Ġacting":9212,"Ġwasted":9213,"Ġwondering":9214,"Ġbites":9215,"Ġbiting":9216,"Ġstole":9217,"Ġstirru":9218,"Ġclouded":9219,"suing":9220,"Ġdrinks":9221,"Ġpraised":9222,"Ġenterpr":9223,"voury":9224,"Ġfitter":9225,"Ġgarlic":9226,"Ġchangeling":9227,"Ġdeliverance":9228,"LORDS":9229,"ĠThink":9230,"Ġskin":9231,"Ġsickly":9232,"Ġsignories":9233,"Ġwishes":9234,"Ġregion":9235,"Ġregreet":9236,"Ġconsuls":9237,"Ġcheerful":9238,"Ġordering":9239,"Ġorderly":9240,"Ġfourth":9241,"Ġdug":9242,"Ġducats":9243,"Ġliberties":9244,"verns":9245,"Ġmoveables":9246,"shell":9247,"sheathe":9248,"Ġfrowning":9249,"Ġfeasting":9250,"Ġgrove":9251,"Ġsoften":9252,"Ġbeggary":9253,"Ġconsented":9254,"Revol":9255,"ĠForrest":9256,"hematic":9257,"Ġbarb":9258,"Ġbarr":9259,"Ġbargain":9260,"Ġdropp":9261,"Ġdarken":9262,"Ġdarkly":9263,"Ġcrad":9264,"Ġcrimes":9265,"Ġcrutch":9266,"ĠChurch":9267,"Ġexpost":9268,"Ġgotten":9269,"Ġintercept":9270,"Ġintercession":9271,"Ġevident":9272,"Ġsummon":9273,"Ġvictorious":9274,"Ġrespects":9275,"Ġbriefly":9276,"Ġvisiting":9277,"Ġmalicious":9278,"Ġspeechless":9279,"Ġworshipful":9280,"spo":9281,"Ġfresher":9282,"Ġfreshest":9283,"Ġlimb":9284,"Ġpenury":9285,"Ġpenny":9286,"ĠPlace":9287,"ĠPlayer":9288,"ĠPlashy":9289,"Ġleader":9290,"Ġpatiently":9291,"Ġlamentations":9292,"Ġbroils":9293,"Ġbawdy":9294,"Ġcleft":9295,"Ġcreation":9296,"Ġcapable":9297,"Ġcapital":9298,"Ġlacks":9299,"Ġopposed":9300,"Ġeating":9301,"Ġviolate":9302,"Ġapproaches":9303,"Ġcomplices":9304,"ĠChristendom":9305,"Ġsurm":9306,"Ġsurly":9307,"Ġsurvey":9308,"Conf":9309,"Plain":9310,"Pluck":9311,"Ġbirths":9312,"arlisle":9313,"Ġpainful":9314,"Ġbecame":9315,"Standing":9316,"Ġtorches":9317,"Ġtorments":9318,"Ġwildly":9319,"Ġcaus":9320,"Ġcertainly":9321,"semary":9322,"Ġinjured":9323,"Ġinnocency":9324,"Ġurging":9325,"Thinking":9326,"ĠStand":9327,"ĠStaff":9328,"Ġpleasures":9329,"Mariner":9330,"Ġapothecary":9331,"Ġshock":9332,"Ġmeditation":9333,"Ġobst":9334,"Ġobdur":9335,"Ġoblivion":9336,"Ġdooms":9337,"Ġfavourable":9338,"Ġuncertain":9339,"ighbours":9340,"ĠEnglishman":9341,"Ġlane":9342,"settled":9343,"Ġrefuge":9344,"ĠMercury":9345,"Ġtempor":9346,"Enforce":9347,"Envir":9348,"bborn":9349,"himself":9350,"Ġdrowning":9351,"angled":9352,"Ġeffects":9353,"Ġswiftly":9354,"ĠPrithee":9355,"Ġdesperately":9356,"Ġdoublet":9357,"Meaning":9358,"Ġauthorities":9359,"Ġfruits":9360,"Ġelders":9361,"Ġstudies":9362,"Ġstudied":9363,"Ġenjoys":9364,"Ġwretchedness":9365,"Brought":9366,"eye":9367,"eyed":9368,"Ġbastardy":9369,"Ġcorners":9370,"Ġhelms":9371,"stantial":9372,"Ġdegenerate":9373,"Ġseverity":9374,"ĠWilloughby":9375,"Ġcountermand":9376,"Ġcounterpo":9377,"Ġbeggarly":9378,"Loved":9379,"monstrous":9380,"Ġdwelling":9381,"Ġgentry":9382,"Ġbutchers":9383,"Ġunfit":9384,"Ġadded":9385,"Ġprivately":9386,"Ġverge":9387,"Ġverity":9388,"attling":9389,"Ġrelation":9390,"Ġrelieve":9391,"Ġdealing":9392,"Ġarrival":9393,"Ġsmoking":9394,"Blind":9395,"Desp":9396,"Except":9397,"constable":9398,"Ġbait":9399,"Ġstabbed":9400,"Ġspeeches":9401,"Ġshores":9402,"Ġproofs":9403,"Ġjointure":9404,"Ġprophecies":9405,"Ġembracements":9406,"Ġinnocents":9407,"Adieu":9408,"Advance":9409,"Ġedict":9410,"Ġwagon":9411,"rehend":9412,"Ġelection":9413,"Ġelements":9414,"Ġdecree":9415,"Ġdecrees":9416,"Ġnecessary":9417,"Ġnecessities":9418,"Ġsailors":9419,"Ġprevails":9420,"Rescue":9421,"Ġescap":9422,"ĠWherefore":9423,"Ġoffenders":9424,"Ġheaviness":9425,"Ġheavily":9426,"Showing":9427,"Ġprofession":9428,"Ġexpressly":9429,"appare":9430,"proud":9431,"Ġbandy":9432,"Ġbondage":9433,"Ġdetested":9434,"Ġcalf":9435,"Ġphysicians":9436,"Ġvanqu":9437,"Ġvanish":9438,"Ġdeserts":9439,"Ġtransg":9440,"Ġaffected":9441,"Ġleanness":9442,"Ġaccusations":9443,"Ġpunishment":9444,"Repair":9445,"Ġbasil":9446,"Ġfeeble":9447,"Ġfashions":9448,"Ġdivers":9449,"Ġports":9450,"Ġportion":9451,"Ġbewray":9452,"Ġcomplete":9453,"Ġambush":9454,"Ġambassad":9455,"Ġargument":9456,"Ġarguments":9457,"ĠProceed":9458,"Ġadvancement":9459,"Ġpersuaded":9460,"Ġpetitions":9461,"Ġsolemnity":9462,"Bearing":9463,"Heavens":9464,"exec":9465,"score":9466,"itae":9467,"Ġhostess":9468,"Ġobscured":9469,"Ġshunn":9470,"Ġblocks":9471,"Ġquality":9472,"Ġqualities":9473,"Ġqualify":9474,"Ġalteration":9475,"Ġmaidenhead":9476,"Ġvexation":9477,"Setting":9478,"brain":9479,"Ġmorsel":9480,"Ġdigest":9481,"Ġthorny":9482,"Ġsprites":9483,"ĠCobham":9484,"Ġcombat":9485,"Ġworthier":9486,"Ġworthiest":9487,"Ġjewels":9488,"ĠAdam":9489,"ĠAdieu":9490,"Ġdisperse":9491,"Ġclamorous":9492,"Ġdirectly":9493,"Accursed":9494,"maids":9495,"shapen":9496,"weary":9497,"Ġsymp":9498,"Ġsalute":9499,"Ġfiends":9500,"Ġdimm":9501,"Ġdriven":9502,"Ġceremony":9503,"Ġlinen":9504,"Ġhorrible":9505,"Ġpikes":9506,"Ġforsook":9507,"Ġreckless":9508,"Ġunjustly":9509,"Ġenforcement":9510,"Ġdissembling":9511,"Ġfloods":9512,"Ġrestrain":9513,"Ġresisted":9514,"Ġaffliction":9515,"Ġreconciled":9516,"Ġhelmets":9517,"Ġcomplexions":9518,"Imagine":9519,"Knows":9520,"Quick":9521,"Rich":9522,"Richmond":9523,"Smile":9524,"boding":9525,"ratitude":9526,"warrant":9527,"Ġtimorous":9528,"oubted":9529,"Ġmirror":9530,"Ġmessage":9531,"inctly":9532,"Ġbuckle":9533,"Ġdifferen":9534,"Ġdifference":9535,"Ġlineal":9536,"Ġgrub":9537,"Ġstumbled":9538,"Ġreceives":9539,"Ġreceipt":9540,"Ġshameless":9541,"Ġfactious":9542,"Ġdispleased":9543,"Ġdisguise":9544,"Ġcoffin":9545,"Ġcoffers":9546,"Ġgratis":9547,"Ġincense":9548,"Ġacquaintance":9549,"Awaked":9550,"Darest":9551,"Witness":9552,"Withal":9553,"pretation":9554,"Ġtoucheth":9555,"Ġtrod":9556,"Ġbonny":9557,"Ġfretting":9558,"Ġnettle":9559,"Ġlurk":9560,"Ġlurking":9561,"Ġthirsty":9562,"Ġhomicide":9563,"Ġhighest":9564,"Ġtoys":9565,"Ġwealthy":9566,"Ġspectacle":9567,"Ġblasts":9568,"ĠValent":9569,"ĠValeria":9570,"Ġhopeless":9571,"Ġengross":9572,"Ġflinty":9573,"Ġbeguiled":9574,"Ġsubdue":9575,"Ġsubdued":9576,"Ġbeauties":9577,"Ġbeautiful":9578,"Ġsacrifice":9579,"Ġlengthens":9580,"Brave":9581,"Persuade":9582,"Persuades":9583,"Write":9584,"called":9585,"contin":9586,"Ġsession":9587,"Ġmathematic":9588,"Ġporter":9589,"Ġpainting":9590,"Ġgnaw":9591,"Ġgainsay":9592,"seeming":9593,"Ġgossips":9594,"Ġuneven":9595,"Ġunrevere":9596,"Ġprodigy":9597,"Ġprodigal":9598,"Ġencourage":9599,"Ġdisinherit":9600,"Ġdisinherited":9601,"Ġabundant":9602,"Ġabundance":9603,"Ġrobbers":9604,"Ġcontrol":9605,"Ġcontroversy":9606,"Ġaccomplish":9607,"Ġtrenches":9608,"Ġbuzzard":9609,"Ġattorneys":9610,"Ġdrooping":9611,"Ġembraced":9612,"Ġobsequies":9613,"Ġdetestable":9614,"Acquaint":9615,"Caius":9616,"beseeming":9617,"tinent":9618,"Ġmasqu":9619,"Ġbulk":9620,"Ġfifty":9621,"Ġfilthy":9622,"Ġcropp":9623,"Ġpowder":9624,"Ġpicture":9625,"Ġeffeminate":9626,"Ġstinking":9627,"Ġdeceased":9628,"Ġdeformity":9629,"Ġdoleful":9630,"Ġannoy":9631,"Ġancestors":9632,"Ġsparkling":9633,"ĠLovel":9634,"Ġplanet":9635,"ĠWestmin":9636,"Ġrheum":9637,"Ġrigour":9638,"Ġclergy":9639,"Ġeverlasting":9640,"Ġrumour":9641,"Ġaccompany":9642,"Ġchampion":9643,"Ġconfederate":9644,"Ġafterwards":9645,"Happily":9646,"Ġcriminal":9647,"Ġsummers":9648,"Ġinsinuate":9649,"Ġunprovided":9650,"Ġunluckily":9651,"Ġmagistrate":9652,"Ġlineaments":9653,"Ġsurprised":9654,"Ġfantastical":9655,"Ġmomentary":9656,"Banish":9657,"Deny":9658,"Destroy":9659,"Err":9660,"Renowned":9661,"married":9662,"minded":9663,"person":9664,"sometimes":9665,"withal":9666,"ĠUlysses":9667,"Ġturtle":9668,"Ġtinker":9669,"Ġtreaty":9670,"Ġacknowledge":9671,"Ġmantle":9672,"Ġderived":9673,"Ġdiligence":9674,"Ġdrowsy":9675,"Ġcandle":9676,"Ġyesternight":9677,"Ġominous":9678,"Ġgamut":9679,"Ġbeetle":9680,"Ġinveterate":9681,"Ġinvention":9682,"Ġinheritance":9683,"imois":9684,"Ġstubborn":9685,"Ġresemblance":9686,"ĠCleomenes":9687,"Ġvigour":9688,"Forthwith":9689,"ĠLammas":9690,"Ġorphans":9691,"Ġusurer":9692,"Ġunpleasing":9693,"Ġworships":9694,"ĠHappy":9695,"ĠAmazon":9696,"Ġdisloyal":9697,"Ġexclaims":9698,"ĠTurks":9699,"Ġprecise":9700,"Ġscourge":9701,"Ġchivalry":9702,"Ġappellant":9703,"Ġimmediately":9704,"ĠJerusale":9705,"ĠJuno":9706,"Ġconspiracy":9707,"Ġchafed":9708,"Ġsuppliant":9709,"Ġinfringe":9710,"Ġinfirmity":9711,"Ġminstrels":9712,"Ġdistinguish":9713,"Ġmalignant":9714,"Ġargosy":9715,"scaped":9716,"Pursuivant":9717,"Ġeloquence":9718,"BLUNT":9719,"Breathe":9720,"Children":9721,"EARL":9722,"FRANCIS":9723,"Glad":9724,"Hostess":9725,"Juliet":9726,"Merely":9727,"Perchance":9728,"Senators":9729,"Souls":9730,"Stop":9731,"Tongue":9732,"creature":9733,"corner":9734,"danger":9735,"igeia":9736,"makers":9737,"ozine":9738,"Ġtumult":9739,"Ġsurname":9740,"Ġbustle":9741,"Ġbauble":9742,"Ġbashful":9743,"Ġfuture":9744,"Ġnineteen":9745,"Ġlazy":9746,"Ġthreefold":9747,"Ġpoorest":9748,"Ġgirls":9749,"athaniel":9750,"Ġsteterat":9751,"Ġstratagems":9752,"Ġkennel":9753,"ascivious":9754,"Ġseparated":9755,"Ġsulphur":9756,"Ġanguish":9757,"ĠCastle":9758,"ĠRagozine":9759,"Ġviolet":9760,"Ġshepherds":9761,"ĠLudlow":9762,"ĠSixth":9763,"ĠSebastian":9764,"ĠSALISBURY":9765,"ĠBristol":9766,"ĠBrandon":9767,"Ġunawares":9768,"Ġunaccustom":9769,"ĠHallowmas":9770,"ĠAbhorson":9771,"Ġsomebody":9772,"Ġadulteress":9773,"ĠDelphos":9774,"Ġsubscribe":9775,"ĠMontgomery":9776,"Ġenterprise":9777,"ĠStafford":9778,"Ġobdurate":9779,"Ġmathematics":9780,"ĠWestminster":9781,"ĠJerusalem":9782,"'m":9783,"'ve":9784,"Aim":9785,"Ant":9786,"Ariel":9787,"Bu":9788,"Bea":9789,"Bare":9790,"Been":9791,"Base":9792,"Bianca":9793,"Boot":9794,"Bishop":9795,"Bushy":9796,"Brief":9797,"Cor":9798,"Cur":9799,"Chan":9800,"CARD":9801,"Crown":9802,"Cull":9803,"Certain":9804,"Coun":9805,"Cambio":9806,"Cuts":9807,"Captain":9808,"Dre":9809,"Day":9810,"Dra":9811,"Done":9812,"Dry":9813,"Dig":9814,"Del":9815,"Dull":9816,"Deep":9817,"Dorset":9818,"During":9819,"EAS":9820,"Emb":9821,"Earth":9822,"Fan":9823,"Four":9824,"Fam":9825,"Fast":9826,"Fare":9827,"Further":9828,"Gro":9829,"Gave":9830,"Gremio":9831,"Grim":9832,"Grief":9833,"Him":9834,"Hea":9835,"HEY":9836,"Holl":9837,"Honour":9838,"Hover":9839,"Honest":9840,"Half":9841,"Iron":9842,"Joy":9843,"Jove":9844,"John":9845,"Killing":9846,"Le":9847,"Lim":9848,"Lau":9849,"List":9850,"Learn":9851,"Laid":9852,"Lift":9853,"Lament":9854,"Lascivious":9855,"Mond":9856,"Meet":9857,"Merc":9858,"Matter":9859,"Mont":9860,"Mars":9861,"Maid":9862,"Mortal":9863,"Menenius":9864,"New":9865,"Need":9866,"Nature":9867,"Pe":9868,"Po":9869,"Pom":9870,"Ple":9871,"Pri":9872,"Pra":9873,"Past":9874,"Pity":9875,"Pass":9876,"Pret":9877,"Padua":9878,"Pisa":9879,"Prick":9880,"Ra":9881,"Rec":9882,"Rise":9883,"Rage":9884,"RIST":9885,"Sk":9886,"Sl":9887,"Sn":9888,"Sed":9889,"Sith":9890,"Sher":9891,"Sea":9892,"Saint":9893,"Sister":9894,"Spl":9895,"Sham":9896,"Suff":9897,"Sorry":9898,"Safe":9899,"Silence":9900,"Simois":9901,"Ty":9902,"Tor":9903,"Thi":9904,"Tear":9905,"Tend":9906,"Tick":9907,"Tears":9908,"Taking":9909,"Tread":9910,"Troth":9911,"Taste":9912,"TIT":9913,"Temper":9914,"Tribunes":9915,"Us":9916,"Vis":9917,"VEL":9918,"Vince":9919,"Vile":9920,"Verona":9921,"Wear":9922,"Wind":9923,"Wish":9924,"Wise":9925,"Wrong":9926,"Words":9927,"Wrench":9928,"York":9929,"ah":9930,"avy":9931,"acheth":9932,"avoury":9933,"bu":9934,"bet":9935,"bion":9936,"bout":9937,"both":9938,"bound":9939,"been":9940,"bew":9941,"bary":9942,"bring":9943,"brows":9944,"bawd":9945,"bishop":9946,"cr":9947,"cre":9948,"cer":9949,"cke":9950,"crow":9951,"cum":9952,"cold":9953,"cass":9954,"cause":9955,"cup":9956,"cures":9957,"cover":9958,"cote":9959,"cerity":9960,"did":9961,"dam":9962,"die":9963,"del":9964,"dges":9965,"dying":9966,"dares":9967,"ev":9968,"ece":9969,"even":9970,"ection":9971,"fes":9972,"fear":9973,"fast":9974,"five":9975,"fond":9976,"fig":9977,"fire":9978,"face":9979,"fied":9980,"fool":9981,"fair":9982,"finger":9983,"false":9984,"front":9985,"gent":9986,"gess":9987,"god":9988,"gger":9989,"gier":9990,"gments":9991,"gentleman":9992,"gging":9993,"goose":9994,"hot":9995,"home":9996,"hum":9997,"hings":9998,"hunt":9999,"hours":10000,"hrew":10001,"horses":10002,"honest":10003,"ii":10004,"ipher":10005,"iency":10006,"iercing":10007,"journ":10008,"jurious":10009,"known":10010,"knew":10011,"kfulness":10012,"lore":10013,"lant":10014,"lady":10015,"lings":10016,"lars":10017,"mor":10018,"mend":10019,"mother":10020,"mod":10021,"mple":10022,"mock":10023,"mark":10024,"music":10025,"mmer":10026,"mouth":10027,"motion":10028,"mitted":10029,"masters":10030,"mercy":10031,"maker":10032,"nz":10033,"nit":10034,"non":10035,"ned":10036,"nard":10037,"nity":10038,"nable":10039,"nounce":10040,"oan":10041,"oil":10042,"oise":10043,"ogy":10044,"pit":10045,"pan":10046,"pill":10047,"pur":10048,"pore":10049,"pate":10050,"purse":10051,"power":10052,"pile":10053,"position":10054,"pointed":10055,"prison":10056,"pipe":10057,"persu":10058,"rot":10059,"rine":10060,"round":10061,"rite":10062,"ruth":10063,"rons":10064,"sm":10065,"sight":10066,"sound":10067,"suck":10068,"ssed":10069,"spect":10070,"said":10071,"silence":10072,"sky":10073,"simple":10074,"tre":10075,"tri":10076,"test":10077,"town":10078,"turn":10079,"tide":10080,"talk":10081,"tail":10082,"trust":10083,"teeth":10084,"truly":10085,"ux":10086,"uit":10087,"ugh":10088,"uct":10089,"uel":10090,"uance":10091,"uft":10092,"uities":10093,"ucal":10094,"ucing":10095,"uiced":10096,"vors":10097,"virt":10098,"vouch":10099,"vict":10100,"vial":10101,"vals":10102,"wore":10103,"wood":10104,"west":10105,"wall":10106,"wish":10107,"wag":10108,"wilt":10109,"walk":10110,"wonder":10111,"words":10112,"wooing":10113,"xy":10114,"yers":10115,"yves":10116,"years":10117,"youth":10118,"zes":10119,"zalo":10120,"Ġ:":10121,"Ġess":10122,"ĠThat":10123,"ĠUpon":10124,"Ġounce":10125,"ĠQu":10126,"Ġtar":10127,"Ġtesty":10128,"Ġtush":10129,"Ġtithe":10130,"Ġtires":10131,"Ġtaming":10132,"Ġtables":10133,"Ġtalks":10134,"Ġtabour":10135,"Ġthaw":10136,"Ġtuft":10137,"heer":10138,"hear":10139,"heir":10140,"heth":10141,"heres":10142,"heads":10143,"Ġaed":10144,"Ġaut":10145,"Ġaus":10146,"Ġache":10147,"Ġapes":10148,"Ġavail":10149,"Ġaqua":10150,"Ġavouch":10151,"ouched":10152,"ourest":10153,"Ġsce":10154,"Ġsout":10155,"Ġsci":10156,"Ġserving":10157,"Ġsip":10158,"Ġsainted":10159,"Ġsize":10160,"Ġmam":10161,"Ġmoth":10162,"Ġmol":10163,"Ġmaw":10164,"Ġmalm":10165,"Ġmatt":10166,"Ġmakest":10167,"Ġmature":10168,"Ġmusc":10169,"Ġmuddy":10170,"init":10171,"inst":10172,"inch":10173,"inent":10174,"inest":10175,"inand":10176,"inter":10177,"inant":10178,"inish":10179,"inence":10180,"into":10181,"inary":10182,"inning":10183,"inions":10184,"Ġwive":10185,"Ġwool":10186,"Ġwield":10187,"Ġwip":10188,"Ġwaded":10189,"reb":10190,"reck":10191,"requ":10192,"rection":10193,"recy":10194,"having":10195,"hapen":10196,"Ġbout":10197,"Ġbough":10198,"Ġbower":10199,"Ġbull":10200,"Ġbled":10201,"Ġbiss":10202,"Ġbits":10203,"Ġbitt":10204,"Ġbars":10205,"Ġbaked":10206,"Ġborough":10207,"Ġbias":10208,"Ġbunch":10209,"Ġbattery":10210,"isans":10211,"isheth":10212,"ora":10213,"oro":10214,"orst":10215,"orable":10216,"orks":10217,"orged":10218,"orcester":10219,"orpor":10220,"Ġfay":10221,"Ġfust":10222,"Ġfel":10223,"Ġfert":10224,"Ġfade":10225,"Ġfitt":10226,"Ġfours":10227,"Ġfined":10228,"Ġfume":10229,"Ġfurious":10230,"Ġfaded":10231,"Ġfishes":10232,"Ġfidd":10233,"Ġfuel":10234,"eral":10235,"erver":10236,"erth":10237,"erry":10238,"erick":10239,"erness":10240,"erbear":10241,"erately":10242,"erpast":10243,"erween":10244,"lled":10245,"itle":10246,"itter":10247,"itic":10248,"itied":10249,"itud":10250,"itary":10251,"itution":10252,"ittering":10253,"itzwater":10254,"onition":10255,"onesty":10256,"onzalo":10257,"Ġdul":10258,"Ġdart":10259,"Ġdive":10260,"Ġdau":10261,"Ġdall":10262,"Ġdough":10263,"Ġdates":10264,"Ġdirt":10265,"Ġdial":10266,"Ġdaunt":10267,"Ġdump":10268,"Ġdally":10269,"Ġdiff":10270,"Ġdawn":10271,"Ġdaff":10272,"Ġdarts":10273,"Ġdumps":10274,"Ġcu":10275,"Ġcod":10276,"Ġcel":10277,"Ġcoy":10278,"Ġcull":10279,"Ġcable":10280,"Ġcitizen":10281,"Ġcakes":10282,"Ġcured":10283,"Ġcats":10284,"Ġcures":10285,"Ġcuff":10286,"Ġcities":10287,"Ġcott":10288,"Ġcamp":10289,"Ġcater":10290,"Ġcrick":10291,"Ġcyp":10292,"Ġcipher":10293,"esnes":10294,"enel":10295,"enious":10296,"encounter":10297,"enances":10298,"Ġnim":10299,"Ġnation":10300,"Ġnurs":10301,"Ġnuts":10302,"Ġnavy":10303,"Ġla":10304,"Ġlure":10305,"Ġlime":10306,"Ġlag":10307,"Ġlave":10308,"Ġlatter":10309,"Ġlump":10310,"Ġlackey":10311,"Ġlitter":10312,"Ġyard":10313,"Ġthigh":10314,"Ġthrows":10315,"Ġthimble":10316,"Ġthorough":10317,"arr":10318,"arce":10319,"arri":10320,"arallel":10321,"arbary":10322,"Ġhy":10323,"Ġhound":10324,"Ġhild":10325,"Ġhides":10326,"Ġhoop":10327,"Ġhunts":10328,"Ġhyp":10329,"Ġhugg":10330,"Ġoil":10331,"Ġtot":10332,"Ġtore":10333,"Ġtokens":10334,"Ġps":10335,"Ġply":10336,"Ġpea":10337,"Ġpru":10338,"Ġpout":10339,"Ġpond":10340,"Ġpence":10341,"Ġpins":10342,"Ġpile":10343,"Ġpars":10344,"Ġponder":10345,"Ġpump":10346,"Ġpip":10347,"Ġpities":10348,"Ġpelting":10349,"Ġphra":10350,"hating":10351,"ĠImp":10352,"Ġhent":10353,"Ġhewn":10354,"Ġheated":10355,"Ġhearers":10356,"vex":10357,"vels":10358,"otent":10359,"otche":10360,"otions":10361,"otpan":10362,"stal":10363,"stain":10364,"stock":10365,"stones":10366,"strange":10367,"anied":10368,"anched":10369,"annib":10370,"omy":10371,"ominable":10372,"Ġgas":10373,"Ġgore":10374,"Ġgest":10375,"Ġgun":10376,"Ġglo":10377,"Ġgale":10378,"Ġgird":10379,"Ġgiv":10380,"Ġgees":10381,"Ġgames":10382,"Ġgazed":10383,"Ġgamb":10384,"Ġgilly":10385,"Ġgasp":10386,"Ġghast":10387,"Ġgyves":10388,"atal":10389,"attle":10390,"atisf":10391,"Ġbeck":10392,"Ġbeam":10393,"Ġbede":10394,"Ġbeards":10395,"Ġbeheaded":10396,"Ġbemo":10397,"seed":10398,"sever":10399,"seven":10400,"sembles":10401,"Ġinher":10402,"Ġinde":10403,"Ġinches":10404,"Ġinvest":10405,"Ġinex":10406,"Ġinforced":10407,"Ġinvoc":10408,"Ġinhum":10409,"cease":10410,"cember":10411,"Ġhal":10412,"Ġhay":10413,"Ġhack":10414,"Ġhagg":10415,"Ġhaunts":10416,"Ġhammer":10417,"lem":10418,"learn":10419,"aynard":10420,"ldst":10421,"irand":10422,"etry":10423,"ediness":10424,"edeem":10425,"utor":10426,"utish":10427,"utiful":10428,"utoly":10429,"Ġmeas":10430,"Ġmeek":10431,"imy":10432,"imer":10433,"imon":10434,"ithmet":10435,"Ġnothings":10436,"chion":10437,"church":10438,"chbishop":10439,"Ġfork":10440,"Ġforged":10441,"Ġforges":10442,"Ġforfend":10443,"Ġforfeits":10444,"keeping":10445,"Ġwean":10446,"Ġwealt":10447,"Ġweeks":10448,"ooch":10449,"oosing":10450,"Ġeaster":10451,"Ġeats":10452,"Ġepit":10453,"hers":10454,"herds":10455,"Ġwithholds":10456,"entation":10457,"Ġitch":10458,"add":10459,"ading":10460,"adies":10461,"adition":10462,"adders":10463,"rid":10464,"ripp":10465,"ride":10466,"rivener":10467,"Ġstam":10468,"Ġstif":10469,"Ġstake":10470,"Ġstings":10471,"Ġstee":10472,"Ġstuck":10473,"Ġstates":10474,"Ġstair":10475,"Ġstains":10476,"Ġstony":10477,"Ġstaves":10478,"Ġstumbling":10479,"Ġkitche":10480,"Ġhiss":10481,"ids":10482,"idity":10483,"ideth":10484,"idels":10485,"ashing":10486,"assed":10487,"asury":10488,"Ġreel":10489,"Ġreins":10490,"Ġreek":10491,"Ġrenew":10492,"Ġrevoke":10493,"Ġrenounce":10494,"Ġrehear":10495,"Ġresembles":10496,"lymp":10497,"ram":10498,"rain":10499,"rained":10500,"raught":10501,"ramed":10502,"racted":10503,"Ġliver":10504,"Ġlibr":10505,"Ġlicence":10506,"url":10507,"alian":10508,"alms":10509,"Ġsol":10510,"Ġsops":10511,"Ġsoever":10512,"Ġsoothing":10513,"Ġsoothe":10514,"Ġasks":10515,"Ġasunder":10516,"Ġdeem":10517,"Ġdeity":10518,"Ġdeign":10519,"rob":10520,"roses":10521,"roying":10522,"hic":10523,"hily":10524,"hips":10525,"oody":10526,"estim":10527,"Ġshaped":10528,"eaf":10529,"Ġdoers":10530,"Ġdoff":10531,"Ġwillow":10532,"amour":10533,"amine":10534,"Ġnodd":10535,"Ġnoisome":10536,"Ġnovice":10537,"usan":10538,"usband":10539,"uspect":10540,"ushed":10541,"andon":10542,"ifs":10543,"ifies":10544,"ificial":10545,"Ġseed":10546,"Ġseats":10547,"Ġseals":10548,"Ġseeds":10549,"Ġselves":10550,"genders":10551,"Threw":10552,"Thomas":10553,"Ġally":10554,"Ġallied":10555,"Ġsums":10556,"runk":10557,"thine":10558,"thread":10559,"tern":10560,"Ġlogs":10561,"Ġlosing":10562,"Ġlolling":10563,"Ġlogger":10564,"hankfulness":10565,"ellist":10566,"earing":10567,"Ġspies":10568,"Ġspran":10569,"Ġspray":10570,"Ġspright":10571,"Ġspawn":10572,"Ġsparing":10573,"Ġspacious":10574,"Ġsprung":10575,"iless":10576,"ilities":10577,"iliments":10578,"ĠCon":10579,"ĠCret":10580,"ĠCousin":10581,"ĠCarlisle":10582,"ĠCheer":10583,"romise":10584,"Ġnecks":10585,"Ġnephe":10586,"hod":10587,"hose":10588,"holesome":10589,"Ġknack":10590,"Ġknots":10591,"ĠRe":10592,"ĠRather":10593,"ĠRedeem":10594,"Ġvall":10595,"Ġvail":10596,"Ġvaunt":10597,"Ġvouchsafe":10598,"Ġvouches":10599,"Ġvizard":10600,"Ġvitae":10601,"ERKE":10602,"Ġshy":10603,"Ġshin":10604,"Ġshining":10605,"anting":10606,"Ġupholds":10607,"quer":10608,"ques":10609,"quent":10610,"quire":10611,"question":10612,"arting":10613,"aths":10614,"athy":10615,"onely":10616,"oneous":10617,"Ġprone":10618,"Ġpratest":10619,"Ġprank":10620,"Ġproro":10621,"Ġprattle":10622,"Ġcomfor":10623,"Ġmanors":10624,"Ġmansion":10625,"Whatever":10626,"ĠMake":10627,"ĠMost":10628,"ĠMort":10629,"ĠMON":10630,"ĠMamill":10631,"ĠMEAS":10632,"ĠMirand":10633,"ĠEre":10634,"ĠEthi":10635,"ĠExton":10636,"ĠEcho":10637,"Ġample":10638,"Ġamount":10639,"Ġampl":10640,"Ġambling":10641,"ics":10642,"icite":10643,"Ġconn":10644,"Ġcony":10645,"Ġconst":10646,"Ġconvenient":10647,"Ġcongeal":10648,"ieving":10649,"Ġblench":10650,"Ġbloss":10651,"Ġblushes":10652,"Ġblank":10653,"Ġblanks":10654,"venged":10655,"ĠGall":10656,"ĠGlou":10657,"ĠGrace":10658,"ĠGonzalo":10659,"Fors":10660,"Force":10661,"Forced":10662,"Fortune":10663,"Forswear":10664,"Ġsheer":10665,"Ġsheet":10666,"Ġsheath":10667,"ements":10668,"embra":10669,"emaker":10670,"embered":10671,"empore":10672,"arest":10673,"outham":10674,"aucas":10675,"Held":10676,"Heir":10677,"Helen":10678,"olate":10679,"olation":10680,"olution":10681,"olitan":10682,"ology":10683,"ĠLy":10684,"ĠLend":10685,"ĠLuke":10686,"ĠLiby":10687,"Ġhates":10688,"LOVEL":10689,"indeed":10690,"Ġthereon":10691,"Ġtherewithal":10692,"Ġcanon":10693,"Ġcancell":10694,"ephen":10695,"few":10696,"fered":10697,"ondam":10698,"ondrous":10699,"resolved":10700,"resseth":10701,"ateful":10702,"Ġhereof":10703,"Ġheretic":10704,"Ġloveth":10705,"Ġlovelier":10706,"Ġswan":10707,"Ġswept":10708,"Ġswarm":10709,"Ġbrood":10710,"Ġbrats":10711,"Ġbrutish":10712,"Ġbrooch":10713,"ppers":10714,"Ġorb":10715,"Ġorison":10716,"Ġorators":10717,"Ġorange":10718,"Ġoratory":10719,"allible":10720,"ĠSh":10721,"ĠSon":10722,"ĠSend":10723,"ĠSure":10724,"ĠSince":10725,"ĠSuff":10726,"ĠSigeia":10727,"ĠSusan":10728,"ĠSoutham":10729,"Ġusest":10730,"Ġusual":10731,"Ġusurps":10732,"ĠOlymp":10733,"ĠBest":10734,"ĠBarbary":10735,"ĠBaynard":10736,"ĠBERKE":10737,"Ġarrog":10738,"Ġarraign":10739,"ody":10740,"odes":10741,"odils":10742,"Ġlethar":10743,"Ġletting":10744,"Ġunable":10745,"Ġunfort":10746,"Ġunking":10747,"Ġunspeak":10748,"Ġunadvised":10749,"Ġungovern":10750,"Ġunpeople":10751,"Ġunhapp":10752,"Ġunquiet":10753,"Ġunhallow":10754,"Ġunsettled":10755,"igm":10756,"igs":10757,"igen":10758,"igate":10759,"igree":10760,"inkle":10761,"ĠHoo":10762,"ĠHence":10763,"ĠHouse":10764,"ĠHung":10765,"ĠHoll":10766,"ĠHang":10767,"ĠHacket":10768,"ĠHugh":10769,"orts":10770,"ortive":10771,"ortham":10772,"ĠVarri":10773,"Ask":10774,"Ascend":10775,"Assist":10776,"elier":10777,"Ġquaff":10778,"Ġquondam":10779,"Ġjay":10780,"Ġjars":10781,"Ġjaunt":10782,"Ġjades":10783,"Ġjog":10784,"reation":10785,"aketh":10786,"ounding":10787,"Ġgraver":10788,"Ġgrains":10789,"Ġgravity":10790,"Ġholl":10791,"Ġhoard":10792,"Ġhoping":10793,"Ġproves":10794,"Ġproli":10795,"Ġpropose":10796,"Ġproject":10797,"Ġprobation":10798,"Ġprolong":10799,"ĠPeace":10800,"ĠPotpan":10801,"Ġsaves":10802,"Ġsavours":10803,"Ġmadmen":10804,"umm":10805,"uming":10806,"umbly":10807,"ummon":10808,"Ġplight":10809,"Ġplough":10810,"Ġplots":10811,"Ġplume":10812,"Ġplagues":10813,"AUGH":10814,"peer":10815,"enced":10816,"ĠWith":10817,"ĠWood":10818,"ĠWhich":10819,"ĠWere":10820,"ĠWorcester":10821,"ists":10822,"isted":10823,"many":10824,"Ġencl":10825,"Ġencom":10826,"Ġencoun":10827,"Ġenvir":10828,"Ġensign":10829,"Ġensuing":10830,"Ġengenders":10831,"unction":10832,"uncle":10833,"Ġrar":10834,"Ġrat":10835,"Ġrite":10836,"Ġrounds":10837,"Ġrayed":10838,"Ġrhyme":10839,"Ġpoets":10840,"Ġpoetry":10841,"decess":10842,"deceiving":10843,"Ġoutside":10844,"pton":10845,"Ġfrivol":10846,"Ġhowling":10847,"ĠAre":10848,"ĠArt":10849,"ĠAbra":10850,"ĠAutoly":10851,"Ġhandled":10852,"ignation":10853,"Ġwhoever":10854,"Ġmarches":10855,"irer":10856,"harm":10857,"harp":10858,"Inst":10859,"Inter":10860,"Incl":10861,"Injurious":10862,"Inquire":10863,"ĠYe":10864,"ĠYorks":10865,"Ġdispose":10866,"Ġdisfig":10867,"Weep":10868,"Weigh":10869,"Weeping":10870,"wness":10871,"Ġheaved":10872,"Ġheaps":10873,"Ġhearken":10874,"Ġhearkens":10875,"ecess":10876,"Oft":10877,"Ġbloods":10878,"Ġabound":10879,"Ġabject":10880,"Ġabides":10881,"Ġabominable":10882,"Ġabandon":10883,"Ġabortive":10884,"Ġfoem":10885,"Ġfoison":10886,"Ġearls":10887,"Ġroe":10888,"Ġrobe":10889,"Ġroots":10890,"Ġroared":10891,"Ġrosemary":10892,"Ġexiled":10893,"Ġexamp":10894,"Ġexcels":10895,"eeting":10896,"Sold":10897,"Ġeyed":10898,"Ġwhereupon":10899,"agon":10900,"agion":10901,"agab":10902,"agued":10903,"Ġdeserving":10904,"Ġdesiring":10905,"Ġdesperation":10906,"avel":10907,"Ġgentlewomen":10908,"Howe":10909,"Ġriot":10910,"Ġrice":10911,"Ġrift":10912,"Ġrider":10913,"Ġribs":10914,"Ġricher":10915,"Ġribb":10916,"Ġrival":10917,"Ġrivals":10918,"Ġarts":10919,"Ġartificial":10920,"Whereby":10921,"Ġhonourably":10922,"Ġslower":10923,"Ġslumber":10924,"Ġslug":10925,"Ġslavish":10926,"Ġwarp":10927,"Ġfling":10928,"Ġflout":10929,"Ġflap":10930,"Ġflung":10931,"Ġflayed":10932,"urnish":10933,"Ġhastily":10934,"Ġtwin":10935,"Ġtwos":10936,"Ġtwigs":10937,"ĠTrust":10938,"ĠTiber":10939,"Ġbetake":10940,"berate":10941,"berries":10942,"Ġbreeder":10943,"Ġbreech":10944,"ccess":10945,"Behind":10946,"aph":10947,"apert":10948,"ighing":10949,"ĠKates":10950,"ĠKnow":10951,"Whoever":10952,"Ġmenace":10953,"Ġcouch":10954,"Ġcouched":10955,"astery":10956,"Ġpartisans":10957,"reech":10958,"please":10959,"pleasure":10960,"Ġadds":10961,"Ġcommune":10962,"Ġstanders":10963,"Ġstandards":10964,"Ġclout":10965,"Ġcloth":10966,"Ġclime":10967,"Ġcloy":10968,"Ġclos":10969,"Ġclip":10970,"Ġclang":10971,"Ġclapp":10972,"Ġclutch":10973,"Ġclubs":10974,"Ġclusters":10975,"Ġpredom":10976,"Ġprecept":10977,"Ġprecip":10978,"Ġpreposterous":10979,"Ġprenz":10980,"Ġpredecess":10981,"Ġsweeten":10982,"Ġsweeting":10983,"Ġpraying":10984,"Ġprayed":10985,"ĠDear":10986,"ĠDoth":10987,"ĠDost":10988,"ĠDown":10989,"ĠDick":10990,"ĠDukes":10991,"ĠDighton":10992,"oused":10993,"Ġperch":10994,"Ġperfid":10995,"Ġperchance":10996,"Ġperadventure":10997,"Ġperceives":10998,"Ġpertinent":10999,"ulled":11000,"Therein":11001,"Thereon":11002,"Thereof":11003,"Ġheadlong":11004,"Ġmeanest":11005,"liest":11006,"licts":11007,"rederick":11008,"Ġscale":11009,"Ġscared":11010,"Ġscathe":11011,"Ġscurvy":11012,"Ġpresag":11013,"Ġpreservation":11014,"ainties":11015,"gery":11016,"perly":11017,"Ġrag":11018,"Ġrav":11019,"Ġrapt":11020,"Ġraged":11021,"Ġrags":11022,"Ġraising":11023,"Ġrazed":11024,"thest":11025,"abs":11026,"aby":11027,"ablish":11028,"abouts":11029,"ĠFri":11030,"ĠFerd":11031,"ĠFollow":11032,"ĠFitzwater":11033,"Ġapple":11034,"Ġappeach":11035,"Ġcontain":11036,"Ġcontend":11037,"Ġcontains":11038,"Ġcontracted":11039,"Ġcontagion":11040,"Ġremnant":11041,"swoln":11042,"Ġuntaught":11043,"Ġuntainted":11044,"Ġunthankfulness":11045,"Ġgraceful":11046,"Ġgraceless":11047,"Ġbegn":11048,"Ġbegs":11049,"Ġeyesight":11050,"landers":11051,"Ġmaim":11052,"INAL":11053,"ĠMarquis":11054,"Ġchildhood":11055,"Letters":11056,"Shed":11057,"Ġreplen":11058,"Ġreproach":11059,"Ġreprehend":11060,"Ġwombs":11061,"wicked":11062,"Ġafire":11063,"Ġafresh":11064,"ledged":11065,"ĠJames":11066,"ĠJustice":11067,"Ġrung":11068,"Ġruff":11069,"Ġrubs":11070,"Ġrubb":11071,"Ġconsents":11072,"Ġconspire":11073,"Ġpeep":11074,"Ġleather":11075,"Ġleash":11076,"log":11077,"uckle":11078,"Ġharp":11079,"Ġresting":11080,"Ġrestless":11081,"ercharged":11082,"Ġenters":11083,"Ġentail":11084,"chest":11085,"chess":11086,"Ġsetter":11087,"Ġsetting":11088,"orship":11089,"intell":11090,"Ġbetters":11091,"rants":11092,"Ġwitless":11093,"Ġwitty":11094,"cloth":11095,"Ġsleeve":11096,"Ġsleeves":11097,"Ġrespite":11098,"Ġrescued":11099,"fty":11100,"ierced":11101,"Ġtribe":11102,"Ġtrident":11103,"Ġtrivial":11104,"Ġmoons":11105,"rets":11106,"onted":11107,"Ġgripe":11108,"Notice":11109,"Ġbestir":11110,"Ġbestrew":11111,"Ġaccent":11112,"Ġaccents":11113,"Ġaccustom":11114,"Ġfollower":11115,"uding":11116,"udge":11117,"Ġendless":11118,"Ġkindle":11119,"Ġkindest":11120,"Ġprig":11121,"Ġpurg":11122,"Ġpurity":11123,"Ġpurblind":11124,"Ġcompet":11125,"ertainties":11126,"Ġtwofold":11127,"Ġchaos":11128,"Provo":11129,"Procure":11130,"Prodig":11131,"Profess":11132,"Provided":11133,"Proportion":11134,"Profan":11135,"Ġguide":11136,"Ġguile":11137,"Ġguides":11138,"Sirs":11139,"Ġsubs":11140,"Ġsubmit":11141,"Ġsubstantial":11142,"raybe":11143,"Ġsmear":11144,"Ġsmack":11145,"Ġsmock":11146,"Ġtrack":11147,"Ġtrained":11148,"Ġtravel":11149,"Ġtrample":11150,"Ġdregs":11151,"Ġcounts":11152,"Ġcountenances":11153,"Ġfinding":11154,"twenty":11155,"Ġtreads":11156,"Ġtreasures":11157,"Ġtreasury":11158,"Ġhighly":11159,"Stabb":11160,"Ġseemed":11161,"Ġhusbandry":11162,"Ġrighteous":11163,"Ġbanns":11164,"Ġbrake":11165,"Ġbraving":11166,"Ġcheat":11167,"Ġcheques":11168,"Ġcharter":11169,"ĠCitizens":11170,"Ġbrick":11171,"Ġbriers":11172,"Ġbridle":11173,"Ġchants":11174,"Ġchannel":11175,"Ġlawless":11176,"Ġlawyers":11177,"Ġshowing":11178,"Ġconfine":11179,"Ġconfounds":11180,"Ġconfident":11181,"Ġconfisc":11182,"beit":11183,"beat":11184,"before":11185,"begu":11186,"begot":11187,"Ġcog":11188,"Ġcox":11189,"Ġcoin":11190,"Ġcoil":11191,"Ġcoven":11192,"Ġcovet":11193,"Ġcocke":11194,"Ġglance":11195,"Ġglittering":11196,"Ġimpute":11197,"Ġimposition":11198,"Ġimpreg":11199,"Ġimplore":11200,"Alla":11201,"Ġdoubly":11202,"Ġeverything":11203,"Ġmista":11204,"Ġpassages":11205,"Ġpassado":11206,"Ġlighted":11207,"Ġlightens":11208,"Doing":11209,"Dogs":11210,"Ġnativity":11211,"Ġthrongs":11212,"ĠMARCIUS":11213,"Ġpardoning":11214,"Ġbesp":11215,"Ġbeseeming":11216,"Ġbeshrew":11217,"Ġhappen":11218,"Ġdevout":11219,"Ġdevised":11220,"Ġdevoted":11221,"Ġjustices":11222,"Ġmisc":11223,"Ġmisled":11224,"Ġmisdeed":11225,"Ġmisadventure":11226,"Ġmisdoubt":11227,"ensible":11228,"Ġlasts":11229,"Ġlastly":11230,"Ġstately":11231,"bler":11232,"black":11233,"Ġmeets":11234,"Ġunderstood":11235,"Ġkills":11236,"Ġkilling":11237,"Ġcareer":11238,"Ġcarefully":11239,"Ourselves":11240,"Ġfollowed":11241,"days":11242,"Ġfarmer":11243,"Ġlessen":11244,"Ġlessons":11245,"Ġhitherward":11246,"irts":11247,"Ġshameful":11248,"Ġeyebrows":11249,"Ġfalter":11250,"Ġfalchion":11251,"Ġfoolery":11252,"Ġpatrim":11253,"Ġsunset":11254,"Ġanswering":11255,"Ġchin":11256,"Ġchoosing":11257,"Ġchurl":11258,"Unc":11259,"Unf":11260,"Unhappy":11261,"Unfold":11262,"Unsheathe":11263,"Answer":11264,"Anointed":11265,"Ġstriving":11266,"Ġstrikes":11267,"Ġstripling":11268,"Ġstrifes":11269,"ildly":11270,"Ġstreams":11271,"Ġhumours":11272,"Ġhumorous":11273,"Ġbelie":11274,"alties":11275,"Ġcourtship":11276,"Ġoverta":11277,"Ġoverboard":11278,"Ġbug":11279,"Ġbubble":11280,"Ġgrateful":11281,"Ġivy":11282,"Ġproveth":11283,"Ġplayers":11284,"Ġplayfellow":11285,"Ġsounding":11286,"Ġdrain":11287,"Ġinstinct":11288,"Ġinstigation":11289,"Ġretail":11290,"Ġthankings":11291,"Ġboil":11292,"holder":11293,"Ġvoid":11294,"Short":11295,"Ġevening":11296,"Ġcurb":11297,"Ġcurds":11298,"Ġcursing":11299,"Ġcurrish":11300,"Ġcurfew":11301,"pecting":11302,"play":11303,"plus":11304,"plight":11305,"plant":11306,"Ġmerciless":11307,"Ġwantons":11308,"Ġrevenues":11309,"Ġassay":11310,"Ġassign":11311,"Ġdoubts":11312,"Ġdoubtless":11313,"Ġtruths":11314,"Ġstrains":11315,"Ġdiscom":11316,"Ġdiscours":11317,"Ġdiscern":11318,"Almost":11319,"Att":11320,"Ġpromises":11321,"Ġpromotions":11322,"ittance":11323,"Ġcracks":11324,"Ġbeaver":11325,"Ġhangmen":11326,"Ġstrangers":11327,"Ġproudly":11328,"Ġdepends":11329,"Ġdeposing":11330,"Ġsecurity":11331,"Ġsecrecy":11332,"Twelve":11333,"compl":11334,"command":11335,"unto":11336,"Ġfreeze":11337,"Ġgreediness":11338,"POMPHEY":11339,"Ġservitor":11340,"Ġdenies":11341,"Ġdenier":11342,"Ġawaking":11343,"Ġawaken":11344,"Ġawaked":11345,"Ġmerits":11346,"Ġmerited":11347,"Ġhorseman":11348,"Herself":11349,"Herald":11350,"Ġwinning":11351,"Ġsupposes":11352,"Ġspoiled":11353,"remacy":11354,"remembered":11355,"Ġdrugs":11356,"Ġdrudge":11357,"Ġdefiance":11358,"Ġdefaced":11359,"Ġunclean":11360,"Looks":11361,"Wash":11362,"Ġaffable":11363,"Ġaffiance":11364,"Ġsinful":11365,"Ġsincerity":11366,"Ġmettle":11367,"Ġmethod":11368,"ringed":11369,"Ġmonastery":11370,"Ġgeneration":11371,"Ġgenerally":11372,"aculate":11373,"Ġsadd":11374,"Ġsaddle":11375,"Ġpurposed":11376,"Ġthroughout":11377,"ictment":11378,"mercies":11379,"Ġchoked":11380,"azz":11381,"ceeding":11382,"Ġplucking":11383,"shot":11384,"Ġlosses":11385,"noble":11386,"Ġcrystal":11387,"Ġentreats":11388,"Ġpersonally":11389,"White":11390,"Ġflying":11391,"Ġfasts":11392,"Ġfaster":11393,"Ġvisits":11394,"ĠLucy":11395,"Ġdispute":11396,"Ġremembering":11397,"Ġorders":11398,"Ġordered":11399,"Ġbolder":11400,"Ġnearness":11401,"Ġtrusted":11402,"Ġinstructed":11403,"Ġinstructions":11404,"without":11405,"Ġtouching":11406,"Ġfoundation":11407,"Ġrunn":11408,"Ġrunning":11409,"Ġrunagate":11410,"Ġwooer":11411,"Ġgrants":11412,"Ġinfidels":11413,"Ġinfallible":11414,"Became":11415,"Spur":11416,"Spread":11417,"gued":11418,"Ġwearisome":11419,"Ġreadiest":11420,"Ġdelivers":11421,"Ġdeliberate":11422,"Ġspeeds":11423,"Ġquarters":11424,"ĠNeap":11425,"ĠNathaniel":11426,"Ġmocks":11427,"Ġmocked":11428,"Ġfurlongs":11429,"Ġfurthest":11430,"Ġforemost":11431,"Ġforego":11432,"Ġforewarn":11433,"Ġfields":11434,"Ġcarver":11435,"Ġcarved":11436,"Ġcarters":11437,"Ġcarriage":11438,"Ġcarbon":11439,"Ġcarcass":11440,"Ġposture":11441,"Ġpostern":11442,"Ġjudged":11443,"Compare":11444,"Cominius":11445,"Ġparle":11446,"Ġparks":11447,"Ġparley":11448,"Ġparcels":11449,"Ġparcel":11450,"Ġparallel":11451,"Ġparagon":11452,"Ġbeholders":11453,"Ġincaged":11454,"Ġincorpor":11455,"Ġrecreation":11456,"Ġdelicious":11457,"Ġdelivered":11458,"Ġworking":11459,"Ġtenor":11460,"Ġbounds":11461,"Ġboundless":11462,"Ġdamask":11463,"Ġopenly":11464,"ĠCapel":11465,"Ġharmful":11466,"Ġguiltiness":11467,"Ġattendance":11468,"Ġattendants":11469,"OPHER":11470,"changea":11471,"Ġvein":11472,"Ġague":11473,"Ġwatching":11474,"Ġfeels":11475,"Ġdishonest":11476,"Ġdistance":11477,"Ġdistaff":11478,"Ġdistrib":11479,"Ġdistilled":11480,"Ġdistinctly":11481,"Ġtribes":11482,"Ġstrengths":11483,"Seeing":11484,"Ġacted":11485,"Ġcoral":11486,"Ġcorpse":11487,"Ġcormor":11488,"Ġstirr":11489,"Untimely":11490,"sub":11491,"supp":11492,"suffic":11493,"Ġsinging":11494,"Ġsingled":11495,"Ġpieced":11496,"Ġcloset":11497,"Ġentering":11498,"Ġbravely":11499,"neither":11500,"vouring":11501,"Ġtype":11502,"Ġwaist":11503,"Ġwaving":11504,"Ġwaft":11505,"Ġfitly":11506,"Ġfitness":11507,"Ġgarter":11508,"Ġgarish":11509,"Ġgarment":11510,"etchy":11511,"Ġweaker":11512,"Ġjests":11513,"Ġplainness":11514,"ĠThree":11515,"Ġskies":11516,"Ġskull":11517,"Ġskins":11518,"Ġsignified":11519,"Ġwiser":11520,"Ġcasting":11521,"Ġforgetfulness":11522,"Ġregent":11523,"Ġvenuto":11524,"Ġrichly":11525,"Ġwedlock":11526,"Ġdugs":11527,"Ġduellist":11528,"Ġmoveable":11529,"Ġbattlements":11530,"sheet":11531,"sheep":11532,"Ġtape":11533,"ouncing":11534,"Ġdirected":11535,"Ġladder":11536,"Ġpaying":11537,"Ġpayment":11538,"Ġgroats":11539,"Ġreduce":11540,"Ġredoubted":11541,"Ġsoftly":11542,"Ġblacker":11543,"Ġextir":11544,"Ġextol":11545,"Ġtroubles":11546,"Ġbeginning":11547,"Ġquarrels":11548,"Requ":11549,"Reward":11550,"Receive":11551,"Rebell":11552,"Ġbarber":11553,"Ġbarne":11554,"Ġdrove":11555,"Ġcrutches":11556,"Ġcrotche":11557,"Ġthrives":11558,"Ġthriving":11559,"arism":11560,"Ġworthless":11561,"Ġprivily":11562,"Ġdangerously":11563,"Ġsighing":11564,"Ġbleared":11565,"Ġinterr":11566,"Ġinterior":11567,"Ġinterpretation":11568,"Ġinterchangea":11569,"Ġundes":11570,"Ġevidence":11571,"Ġvictor":11572,"Ġvictors":11573,"ĠSirrah":11574,"ĠVolsce":11575,"Ġflattery":11576,"Ġdreaded":11577,"Ġdenying":11578,"ipodes":11579,"Ġestablish":11580,"Ġmalady":11581,"Ġmalcontent":11582,"Ġmalapert":11583,"Ġmortals":11584,"Ġbabies":11585,"Ġfraught":11586,"Ġfrailty":11587,"Ġhurry":11588,"Ġhurts":11589,"righted":11590,"spring":11591,"urally":11592,"Ġcrosses":11593,"Ġcrossing":11594,"Ġcowards":11595,"Ġlimed":11596,"Ġpenet":11597,"Ġpenalty":11598,"Ġprotection":11599,"Ġkingdoms":11600,"Ġleading":11601,"Ġlamented":11602,"Ġsuccesses":11603,"Ġsuccessful":11604,"Holding":11605,"spero":11606,"Ġbroil":11607,"Ġbroach":11608,"Ġcleave":11609,"Ġowl":11610,"Ġowed":11611,"Ġowest":11612,"Ġopport":11613,"Ġoppose":11614,"Ġoppress":11615,"Ġgalled":11616,"Ġgallows":11617,"Ġgallops":11618,"Ġforwardness":11619,"Ġangle":11620,"Ġviolation":11621,"antages":11622,"Ġprincip":11623,"Ġapprove":11624,"Ġcomplots":11625,"Ġcompliment":11626,"Ġcomplaints":11627,"butt":11628,"Ġsurfeits":11629,"Ġsurcease":11630,"Ġsurplus":11631,"Ġdestined":11632,"Ġdestroying":11633,"Ġscarf":11634,"Ġscarr":11635,"Ġdeparting":11636,"Ġdeparted":11637,"Ġpossessions":11638,"Conceiving":11639,"Convenient":11640,"Ġbene":11641,"Ġbasely":11642,"Ġbirthright":11643,"Ġfilling":11644,"Ġlabours":11645,"Ġlaboured":11646,"Ġformal":11647,"Ġformally":11648,"Ġeasier":11649,"Ġperformed":11650,"Ġwrites":11651,"Stays":11652,"Abate":11653,"Abbot":11654,"ggar":11655,"ggest":11656,"Ġuttered":11657,"Ġmilder":11658,"Ġwilderness":11659,"reading":11660,"Ġcape":11661,"Ġcavil":11662,"semble":11663,"Ġinsur":11664,"Ġinside":11665,"Ġinsatiate":11666,"Ġinsensible":11667,"Ġshades":11668,"ĠStill":11669,"ĠStephen":11670,"Ġquietly":11671,"Ġquietness":11672,"Ġproceeds":11673,"Ġproceeding":11674,"Ġadmire":11675,"Ġadmits":11676,"Ġadmired":11677,"Ġadmiring":11678,"Ġadmonition":11679,"Margaret":11680,"Ġapish":11681,"Ġapology":11682,"Ġshipp":11683,"Ġshift":11684,"Ġshoot":11685,"Ġmedd":11686,"Ġmedlar":11687,"Ġwalking":11688,"Ġfamed":11689,"Ġhapless":11690,"Ġforswore":11691,"Ġnobody":11692,"Ġfavourites":11693,"Ġblowing":11694,"Ġuncrown":11695,"Ġunconstant":11696,"Ġunknit":11697,"ighbour":11698,"Ġleisurely":11699,"Ġforbids":11700,"counterfeit":11701,"Intends":11702,"Intended":11703,"Ġsorted":11704,"Ġcrupper":11705,"Ġlances":11706,"Ġlisten":11707,"Ġstories":11708,"Ġrefer":11709,"Ġrefresh":11710,"Ġreflect":11711,"Ġseconds":11712,"Ġtemporiz":11713,"Dead":11714,"Enjoy":11715,"Enforced":11716,"Pronounce":11717,"Princes":11718,"Subject":11719,"Success":11720,"Suggest":11721,"Ġtenth":11722,"Ġmutual":11723,"Ġmutually":11724,"Ġmutinies":11725,"Ġmutton":11726,"Ġfinely":11727,"Ġdrowned":11728,"Ġlowest":11729,"Ġpettic":11730,"Ġbended":11731,"Ġbells":11732,"Ġindu":11733,"Ġindust":11734,"Ġinduced":11735,"Ġindignation":11736,"Ġindictment":11737,"Ġstealing":11738,"Ġstealth":11739,"Ġconquered":11740,"Ġproclaimed":11741,"Ġexcused":11742,"Ġexcuses":11743,"Ġdoubled":11744,"Ġdoublets":11745,"Ġwisdoms":11746,"Below":11747,"denly":11748,"Ġmounted":11749,"Ġmountains":11750,"Ġfeign":11751,"Ġfeigned":11752,"Ġcaptives":11753,"Ġpunk":11754,"Ġpuny":11755,"Ġpunished":11756,"Ġhairs":11757,"Ġstudying":11758,"Ġmannerly":11759,"Ġenjoying":11760,"Ġrange":11761,"Ġranks":11762,"Ġabroach":11763,"Ġcontrar":11764,"Ġcontinued":11765,"Ġcontinuance":11766,"Ġdespairing":11767,"Ġstrucken":11768,"Dispose":11769,"Dismiss":11770,"eys":11771,"Ġteaching":11772,"Ġsimpl":11773,"Ġcorns":11774,"Ġcredent":11775,"Ġcredulous":11776,"Ġunprepare":11777,"Ġunpitied":11778,"Ġunparallel":11779,"Ġunwise":11780,"Ġunwieldy":11781,"Ġunwholesome":11782,"Ġunwonted":11783,"Ġprovince":11784,"Ġprovision":11785,"Ġaccounted":11786,"Ġpriests":11787,"Ġguards":11788,"Ġcruelty":11789,"falling":11790,"hearts":11791,"Ġwailing":11792,"Ġdwellest":11793,"Ġpacking":11794,"Ġpackthread":11795,"Ġgavest":11796,"Ġgentleness":11797,"Ġbutcheries":11798,"Ġunsk":11799,"Ġunsway":11800,"Ġunsuspect":11801,"Ġenvying":11802,"Ġridges":11803,"Ġadders":11804,"Ġaddition":11805,"Ġextremities":11806,"Ġbenefactors":11807,"Ġlaughing":11808,"Negle":11809,"Neighbours":11810,"grand":11811,"Ġverily":11812,"Ġveriest":11813,"Ġverified":11814,"Ġverdict":11815,"Ġwreak":11816,"Ġwreaths":11817,"Ġfirmament":11818,"Ġholes":11819,"velling":11820,"Ġincline":11821,"Ġformerly":11822,"Ġeased":11823,"Ġrelent":11824,"Ġdealings":11825,"Ġsportful":11826,"Ġconveyance":11827,"ĠBarnet":11828,"Ġarrive":11829,"Ġunbruised":11830,"ĠHerbert":11831,"ĠHerald":11832,"Ġrooted":11833,"Ġimages":11834,"Ġimagined":11835,"Ġsmoke":11836,"Ġfellowship":11837,"Ġcovering":11838,"Ġacquit":11839,"Ġschoolboy":11840,"ALL":11841,"Black":11842,"Bliss":11843,"Blush":11844,"Bloody":11845,"Desire":11846,"Desires":11847,"Deserved":11848,"Deserve":11849,"Deserves":11850,"Despite":11851,"Exeter":11852,"Examine":11853,"Tutor":11854,"afternoon":11855,"conf":11856,"Ġbaits":11857,"Ġbaited":11858,"Ġdullest":11859,"Ġstables":11860,"ĠAlack":11861,"ĠAlbion":11862,"therea":11863,"therein":11864,"Ġimports":11865,"Ġimportance":11866,"Ġimportuned":11867,"Ado":11868,"Henceforth":11869,"Henceforward":11870,"moreland":11871,"Ġeduc":11872,"Ġfingering":11873,"Ġcustomary":11874,"Ġgrossly":11875,"Ġinformation":11876,"Ġelected":11877,"Ġeagles":11878,"Ġdecreed":11879,"Ġallowing":11880,"Ġallowed":11881,"Ġnecessaries":11882,"Ġknights":11883,"Ġshrill":11884,"Ġsailor":11885,"Ġrobbed":11886,"Ġrobbery":11887,"Ġrocky":11888,"Ġcommendable":11889,"Ġrudely":11890,"Ġassisted":11891,"Ġdelightful":11892,"Ġlanguish":11893,"Ġcircled":11894,"CHRIST":11895,"Resign":11896,"Resolved":11897,"Resolve":11898,"Turns":11899,"active":11900,"dyed":11901,"Ġesp":11902,"Ġespecially":11903,"Ġdurance":11904,"Ġcreep":11905,"Ġcreeping":11906,"Ġnumbering":11907,"Ġlargess":11908,"Ġhidden":11909,"riously":11910,"Ġstarved":11911,"ashion":11912,"Ġdews":11913,"Ġsharper":11914,"Ġconjur":11915,"Ġconjured":11916,"ĠSicils":11917,"Ġchiefly":11918,"Ġconducted":11919,"Ġprotectors":11920,"Ġpublish":11921,"Perform":11922,"appearing":11923,"flies":11924,"flayed":11925,"proof":11926,"ubbering":11927,"Ġerr":11928,"Ġirks":11929,"Ġtortures":11930,"Ġtortoise":11931,"Ġbonds":11932,"Ġdetain":11933,"Ġcambric":11934,"Ġtopmast":11935,"Ġinfectious":11936,"Ġequally":11937,"Ġstored":11938,"Ġsupremacy":11939,"running":11940,"Ġshuts":11941,"Ġsways":11942,"Ġbrooks":11943,"Ġrashly":11944,"Ġrashness":11945,"Ġdisdains":11946,"Ġexcellence":11947,"Ġtransform":11948,"Ġaffects":11949,"Ġaffecting":11950,"Ġaccusers":11951,"Ġpursuing":11952,"Ġpursuivant":11953,"Ġchairs":11954,"Ġdispositions":11955,"Ġconquerors":11956,"Ġspecially":11957,"Knowing":11958,"Prefix":11959,"Retire":11960,"Scorn":11961,"Shake":11962,"large":11963,"parable":11964,"weighs":11965,"Ġtutors":11966,"Ġmurderers":11967,"Ġwoodcock":11968,"Ġballads":11969,"Ġbuds":11970,"Ġfleece":11971,"Ġcensured":11972,"Ġcensures":11973,"Ġcupbearer":11974,"Ġpurest":11975,"Ġbewitch":11976,"Ġmended":11977,"Ġweighing":11978,"queath":11979,"olerable":11980,"Ġargues":11981,"ĠProvost":11982,"ĠProspero":11983,"Ġdissolute":11984,"Ġdissolved":11985,"Ġdissentious":11986,"Ġdissolve":11987,"Ġdissension":11988,"Ġdissolution":11989,"Ġexpected":11990,"Ġadopted":11991,"ĠFlav":11992,"Ġcourageous":11993,"Ġpersuasion":11994,"Ġacceptance":11995,"Ġgroaning":11996,"Ġsolemnly":11997,"bearing":11998,"valued":11999,"Ġtestify":12000,"Ġmagn":12001,"Ġcockle":12002,"Ġcockatri":12003,"Ġhostile":12004,"Ġhunting":12005,"Ġobserve":12006,"Ġpolitic":12007,"Ġrepeat":12008,"ĠCanst":12009,"Ġshuns":12010,"Ġconcern":12011,"Ġqualified":12012,"Ġadversary":12013,"Ġcloven":12014,"Ġcloister":12015,"Ġwhores":12016,"Ġimmod":12017,"Ġpurchased":12018,"Ġimpossib":12019,"Ġmaidenheads":12020,"Ġtemperance":12021,"Ġincreaseth":12022,"Ġcomplaining":12023,"Ġearnestness":12024,"Consort":12025,"Longer":12026,"bridge":12027,"kerchief":12028,"lawfully":12029,"pulous":12030,"ucement":12031,"Ġsquire":12032,"Ġsquared":12033,"Ġsouthward":12034,"Ġmillion":12035,"Ġmillstones":12036,"regia":12037,"Ġfigured":12038,"Ġfurnished":12039,"Ġdigg":12040,"Ġchattering":12041,"Ġparentage":12042,"Ġbefell":12043,"Ġmeantime":12044,"Ġrecomfort":12045,"Ġwillingness":12046,"Ġcombine":12047,"Ġcombined":12048,"Ġswells":12049,"ĠBehold":12050,"Ġprovoke":12051,"ĠAdrian":12052,"Ġconsidering":12053,"Ġcompanions":12054,"Strive":12055,"Ġbrawls":12056,"Ġbuilds":12057,"Ġbuildeth":12058,"Ġintelligen":12059,"Ġrecorded":12060,"Ġwaiting":12061,"Ġgarlands":12062,"Ġforbearance":12063,"Ġopposers":12064,"Ġfamously":12065,"Supposing":12066,"ĠConspirators":12067,"Account":12068,"Keeps":12069,"desire":12070,"shalt":12071,"shaped":12072,"wearied":12073,"Ġingrateful":12074,"Ġingratitude":12075,"Ġingenious":12076,"Ġaptly":12077,"Ġsalve":12078,"Ġsalutation":12079,"Ġmultip":12080,"Ġmultitud":12081,"Ġfunctions":12082,"Ġfuneral":12083,"Ġdrive":12084,"Ġpotent":12085,"Ġpotency":12086,"Ġinquired":12087,"Ġmelting":12088,"Ġmelted":12089,"Ġforsaken":12090,"Ġstinging":12091,"Ġstoutness":12092,"ĠLeicester":12093,"Softly":12094,"ĠDeucal":12095,"ĠDecember":12096,"Ġwrinkle":12097,"Ġwrinkles":12098,"Ġrusty":12099,"Ġcharacters":12100,"Ġsmells":12101,"Ġbracelet":12102,"Ġsecurely":12103,"Ġafflicted":12104,"shoulder":12105,"Ġagreeing":12106,"Ġcorrect":12107,"Ġprettily":12108,"Ġshields":12109,"Ġrejoicing":12110,"Condition":12111,"Draws":12112,"Flower":12113,"Flatter":12114,"Immediate":12115,"Quit":12116,"Rivers":12117,"Sometimes":12118,"access":12119,"bodied":12120,"faith":12121,"footed":12122,"longeth":12123,"monger":12124,"news":12125,"thank":12126,"warm":12127,"Ġmiracle":12128,"Ġwidower":12129,"Ġwestward":12130,"hands":12131,"Ġbuckler":12132,"Ġdifferent":12133,"Ġhorns":12134,"Ġgrudge":12135,"Ġsteer":12136,"Ġsticks":12137,"Ġreceiving":12138,"Ġdeclined":12139,"Ġdeclines":12140,"Ġdeclining":12141,"Ġshamest":12142,"Ġshamef":12143,"Ġsucceeding":12144,"Ġsucceeders":12145,"Ġfactor":12146,"Ġfawns":12147,"Ġneglected":12148,"Ġvariable":12149,"Ġvillanous":12150,"Ġvolumes":12151,"Ġshrieks":12152,"Ġmanifested":12153,"Ġunwillingly":12154,"ĠVenus":12155,"ĠTarquin":12156,"Ġscandalous":12157,"Ġcarelessly":12158,"Ġgratify":12159,"Ġgratulate":12160,"Ġcurtains":12161,"Ġcrafts":12162,"Ġprophetess":12163,"Ġsubstitutes":12164,"Ġrevolted":12165,"Ġconcealment":12166,"Awake":12167,"Courageous":12168,"URE":12169,"cestershire":12170,"pretty":12171,"tender":12172,"Ġtouches":12173,"Ġtrodden":12174,"Ġtigers":12175,"Ġtails":12176,"Ġmethoughts":12177,"Ġbonnet":12178,"Ġfixed":12179,"Ġdateless":12180,"Ġnettles":12181,"Ġnicely":12182,"Ġlucky":12183,"Ġluckless":12184,"Ġpedigree":12185,"Ġpageant":12186,"celsa":12187,"Ġstomachs":12188,"Ġspectators":12189,"ĠGreek":12190,"Ġornament":12191,"ĠScroop":12192,"Ġarrested":12193,"Ġunstain":12194,"Ġunfelt":12195,"Ġwormwood":12196,"Ġengine":12197,"Ġdisgracious":12198,"Ġbeguile":12199,"Ġbegetting":12200,"Ġcollected":12201,"Ġdepending":12202,"Ġmonarchy":12203,"Ġsufficiency":12204,"Ġestimate":12205,"Ġsacrificed":12206,"Plays":12207,"Ġrankle":12208,"Ġcoverture":12209,"Ġapprehends":12210,"Ġmoralize":12211,"Adding":12212,"Engage":12213,"Falsely":12214,"Namely":12215,"Wrath":12216,"conscience":12217,"friend":12218,"prayers":12219,"winged":12220,"Ġtackle":12221,"Ġaudience":12222,"Ġaudible":12223,"Ġsedition":12224,"Ġsedges":12225,"Ġsessions":12226,"Ġmourner":12227,"Ġmoulded":12228,"Ġbruising":12229,"Ġbolt":12230,"Ġbolted":12231,"Ġfinest":12232,"Ġfinish":12233,"Ġfeverous":12234,"Ġlouring":12235,"Ġpillow":12236,"Ġpalmers":12237,"ĠIniquity":12238,"Ġgapes":12239,"Ġinvite":12240,"Ġdemi":12241,"Ġdemesnes":12242,"Ġanchors":12243,"Ġshrug":12244,"ĠEmperor":12245,"Ġshelves":12246,"Ġgossip":12247,"Ġhoarse":12248,"ĠWelshman":12249,"Ġencamp":12250,"Ġdescant":12251,"Ġdescried":12252,"Ġslippery":12253,"Ġpreferment":12254,"perienced":12255,"Ġlectures":12256,"Ġtraveller":12257,"Ġtrencher":12258,"Ġcopy":12259,"Ġcopest":12260,"Ġattainder":12261,"Ġprompts":12262,"Ġcramps":12263,"Ġdivorced":12264,"Ġembraces":12265,"Ġinsolent":12266,"Ġobsequious":12267,"Ġtestimon":12268,"Ġneglecting":12269,"Ġheralds":12270,"Accept":12271,"Caesar":12272,"Divine":12273,"Gramercies":12274,"Relent":12275,"besides":12276,"locks":12277,"missive":12278,"obst":12279,"sentenced":12280,"tino":12281,"tongues":12282,"tongued":12283,"whom":12284,"Ġmasks":12285,"Ġbottle":12286,"Ġbottled":12287,"Ġfrequent":12288,"Ġfountain":12289,"Ġdoting":12290,"Ġdotard":12291,"enedicite":12292,"Ġlingering":12293,"Ġthwack":12294,"Ġpanting":12295,"Ġpictures":12296,"Ġgusts":12297,"Ġstaggers":12298,"Ġrevived":12299,"Ġassembly":12300,"Ġvials":12301,"Ġunlikely":12302,"ĠWestmoreland":12303,"Ġalarum":12304,"Ġalarums":12305,"Ġexceeds":12306,"Ġclerk":12307,"Ġtrimm":12308,"Ġcontrive":12309,"Ġcontrived":12310,"Ġeverlastingly":12311,"Ġpeerless":12312,"Ġbestrid":12313,"Ġbestride":12314,"Ġaccompanied":12315,"Ġcompounded":12316,"Ġchampions":12317,"Ġbrands":12318,"Ġconfederates":12319,"Ġmischiefs":12320,"Ġpatroness":12321,"Ġcrabbed":12322,"Ġdistraught":12323,"Ġcrimson":12324,"Ġinterrupted":12325,"Ġinsinuating":12326,"Ġunlucky":12327,"Ġmagistrates":12328,"Ġstewardship":12329,"Ġunwillingness":12330,"Ġsurprise":12331,"Ġfantastic":12332,"Affliction":12333,"Boldly":12334,"Endured":12335,"Present":12336,"Sicinius":12337,"Sicilia":12338,"burthen":12339,"court":12340,"country":12341,"countenance":12342,"judged":12343,"knock":12344,"malice":12345,"occup":12346,"occasion":12347,"opsa":12348,"phin":12349,"presently":12350,"points":12351,"speech":12352,"Ġireful":12353,"Ġtumbled":12354,"Ġmuffle":12355,"Ġmuffled":12356,"Ġfetter":12357,"Ġfulfil":12358,"Ġdominions":12359,"Ġdedicate":12360,"Ġdieted":12361,"Ġcushion":12362,"Ġcushions":12363,"strains":12364,"Ġgazing":12365,"Ġgrumbling":12366,"Ġliquor":12367,"Ġliquid":12368,"Ġdefects":12369,"Ġdoctors":12370,"Ġdoctrine":12371,"Ġbutterfly":12372,"Ġsequel":12373,"Ġsuggested":12374,"thwart":12375,"thwack":12376,"Ġanswers":12377,"Ġanswered":12378,"Ġsparks":12379,"Ġnegligence":12380,"Ġnegligent":12381,"ĠRoger":12382,"ĠRobert":12383,"Ġviand":12384,"Ġviper":12385,"Ġamendment":12386,"ĠBeseech":12387,"ĠBesides":12388,"Ġarguing":12389,"Ġargued":12390,"Ġarbitrate":12391,"Ġgrafted":12392,"Ġprogress":12393,"ĠArgier":12394,"ĠArchbishop":12395,"Ġabstinence":12396,"Ġabode":12397,"Ġexactly":12398,"Ġexperienced":12399,"Ġriddle":12400,"Ġperdition":12401,"Ġperfume":12402,"Ġperfumed":12403,"Ġtradesmen":12404,"Ġscruple":12405,"Ġappointment":12406,"Ġchapel":12407,"Ġchests":12408,"Ġimpartial":12409,"Ġimpudent":12410,"Ġboatswain":12411,"Ġstraitly":12412,"Ġprofanation":12413,"Ġdishonours":12414,"Ġembassage":12415,"ĠChristophero":12416,"Ġadmiral":12417,"Ġindirectly":12418,"Ġfeatly":12419,"Ġcontradict":12420,"Ġcontradiction":12421,"Ġholiday":12422,"Ġholidame":12423,"Ġreligion":12424,"Ġreligious":12425,"ĠFlorent":12426,"ĠFlorence":12427,"Ġgreyhound":12428,"Ġgreyhounds":12429,"Ġsyllable":12430,"Ġsyllables":12431,"Ġsuperfluous":12432,"Ġsuperfluity":12433,"Ġdisobedience":12434,"Ġdisobedient":12435,"Ġsinews":12436,"Ġcuckolds":12437,"Bestride":12438,"Chide":12439,"Doubly":12440,"Drop":12441,"Eleven":12442,"Golden":12443,"Haply":12444,"Nightly":12445,"Pitchers":12446,"Saddle":12447,"Self":12448,"Slander":12449,"Trans":12450,"Tremble":12451,"often":12452,"silver":12453,"service":12454,"ville":12455,"winds":12456,"ĠĠĊ":12457,"Ġtilth":12458,"Ġaugment":12459,"Ġausterity":12460,"Ġmotive":12461,"Ġmingle":12462,"Ġmassacre":12463,"Ġwrapt":12464,"Ġbaleful":12465,"Ġbounteous":12466,"Ġcedar":12467,"Ġcasque":12468,"Ġcelebr":12469,"Ġlechery":12470,"Ġthrall":12471,"Ġthreshold":12472,"Ġostentation":12473,"Ġocean":12474,"Ġpheasant":12475,"Ġpirate":12476,"Ġpuling":12477,"Ġpensive":12478,"Ġpalsied":12479,"Ġglean":12480,"Ġgilded":12481,"Ġgorgeous":12482,"Ġbehove":12483,"Ġhabiliments":12484,"lexander":12485,"Ġfornication":12486,"Ġeggs":12487,"Ġelbow":12488,"Ġewes":12489,"Ġstalls":12490,"Ġstinted":12491,"Ġkernels":12492,"Ġreversion":12493,"Ġreleased":12494,"Ġdolour":12495,"Ġsemblance":12496,"Ġseventeen":12497,"Ġsurety":12498,"Ġherdsmen":12499,"Ġspotless":12500,"ĠCytherea":12501,"ĠCotus":12502,"Ġvestal":12503,"Ġwheresoe":12504,"icanor":12505,"Ġconverts":12506,"Ġconversation":12507,"Ġconvented":12508,"Ġblasphem":12509,"ĠGuildhall":12510,"Ġcannibals":12511,"ershades":12512,"ĠBreton":12513,"Ġungrateful":12514,"Ġungracious":12515,"Ġuniversal":12516,"Ġunthrifty":12517,"Ġjolly":12518,"Ġproverb":12519,"ĠPilate":12520,"ĠPriami":12521,"Ġplenteous":12522,"Ġenrolled":12523,"Ġoutstret":12524,"ĠAfric":12525,"Ġdiscipline":12526,"Ġexhales":12527,"Ġripest":12528,"Ġadulter":12529,"Ġpresumption":12530,"Ġprescription":12531,"Ġcontempl":12532,"ĠJudas":12533,"Ġendeavours":12534,"Prosperity":12535,"Ġtragedy":12536,"Stirr":12537,"Ġbraggart":12538,"Ġglistering":12539,"Ġmiscarried":12540,"Ġundertaking":12541,"Unworthy":12542,"Ġstreaks":12543,"Ġattentive":12544,"Ġwelcomed":12545,"Ġstrangeness":12546,"comfortable":12547,"Ġtemperately":12548,"Ġinfluences":12549,"Ġquarrelling":12550,"Ġexecuting":12551,"Ġparchment":12552,"Ġvehement":12553,"Ġstirrup":12554,"ĠThinkest":12555,"Ġbarbarism":12556,"Ġcradle":12557,"Ġexpostulate":12558,"spoken":12559,"Plainly":12560,"Ġcauser":12561,"Ġtemporal":12562,"Environed":12563,"Ġcounterpoised":12564,"Despised":12565,"Ġwagoner":12566,"Ġescaped":12567,"apparell":12568,"Ġvanquish":12569,"Ġtransgression":12570,"Ġbasilisk":12571,"Ġambassador":12572,"execution":12573,"Ġsympathy":12574,"Ġdifferences":12575,"Ġunreverent":12576,"Ġencouragement":12577,"Ġmasquers":12578,"Ġclergymen":12579,"Erroneous":12580,"ĠAmazonian":12581,"FRANCISCA":12582,"dangerous":12583,"Ġtumultuous":12584,"Ġsulphurous":12585,"Ġviolets":12586,"Bootless":12587,"Change":12588,"CARDINAL":12589,"Crowns":12590,"Culling":12591,"Certainly":12592,"Counsel":12593,"Drawn":12594,"Delay":12595,"Laugh":12596,"Monday":12597,"Mercutio":12598,"Montague":12599,"Marshal":12600,"Poison":12601,"Pompey":12602,"Pretty":12603,"Sheriff":12604,"Thieves":12605,"Tendering":12606,"TITUS":12607,"Visit":12608,"Vincetino":12609,"better":12610,"delivered":12611,"pillars":12612,"persuasion":12613,"Ġtarget":12614,"Ġaediles":12615,"Ġautumn":12616,"Ġauspicious":12617,"Ġscepter":12618,"Ġsouthern":12619,"Ġmalmsey":12620,"Ġmattock":12621,"instru":12622,"Ġbisson":12623,"Ġbitterest":12624,"Ġfourscore":12625,"Ġdaffodils":12626,"Ġcodpiece":12627,"Ġcottage":12628,"Ġcaterpillars":12629,"Ġcypress":12630,"Ġnimbly":12631,"Ġhuntsmen":12632,"Ġhypoc":12633,"Ġponderous":12634,"Ġphrase":12635,"annibal":12636,"Ġgasping":12637,"Ġgeese":12638,"Ġgillyvors":12639,"Ġghastly":12640,"Ġindex":12641,"Ġinexorable":12642,"Ġinhuman":12643,"Ġhaggard":12644,"learned":12645,"ithmetic":12646,"Ġwealthily":12647,"Ġeastern":12648,"Ġstamps":12649,"Ġstatesman":12650,"Ġlibrary":12651,"Ġsprang":12652,"ĠCheerly":12653,"Ġnephew":12654,"ĠRedeemer":12655,"Ġcomforter":12656,"ĠMortimer":12657,"ĠMONTAGUE":12658,"ĠMamillius":12659,"ĠMEASURE":12660,"ĠMiranda":12661,"ĠGloucestershire":12662,"ĠLibya":12663,"Ġorisons":12664,"ĠSuffolk":12665,"ĠBERKELEY":12666,"Ġarrogance":12667,"Ġlethargy":12668,"Ġunfortunate":12669,"Ġunspeakable":12670,"orthampton":12671,"ĠVarrius":12672,"Ġprolix":12673,"AUGHAN":12674,"Ġencompass":12675,"Ġencounters":12676,"Ġfrivolous":12677,"ĠAbraham":12678,"ĠAutolycus":12679,"ĠYorkshire":12680,"Ġexamples":12681,"agabond":12682,"Ġribbons":12683,"Ġpredominant":12684,"Ġprecipitation":12685,"Ġprenzie":12686,"Ġpredecessors":12687,"ĠFerdinand":12688,"Prodigious":12689,"beguile":12690,"Ġcockerel":12691,"Ġimpregnable":12692,"Ġpatrimony":12693,"Ġdiscourses":12694,"Ġaffianced":12695,"ĠNeapolitan":12696,"Ġincorporate":12697,"Ġcormorant":12698,"Ġcrotchets":12699,"Ġinterchangeably":12700,"Ġprincipal":12701,"Ġpetticoat":12702,"Ġunprepared":12703,"Ġunsuspected":12704,"Ġschoolboys":12705,"Ġeducation":12706,"CHRISTOPHER":12707,"ĠFlavius":12708,"Ġcockatrice":12709,"ĠDeucalion":12710}